{
  "version": "1.0",
  "truncation": null,
  "padding": null,
  "added_tokens": [
    {
      "id": 0,
      "content": "<s>",
      "single_word": false,
      "lstrip": false,
      "rstrip": false,
      "normalized": false,
      "special": true
    },
    {
      "id": 1,
      "content": "<pad>",
      "single_word": false,
      "lstrip": false,
      "rstrip": false,
      "normalized": false,
      "special": true
    },
    {
      "id": 2,
      "content": "</s>",
      "single_word": false,
      "lstrip": false,
      "rstrip": false,
      "normalized": false,
      "special": true
    },
    {
      "id": 3,
      "content": "<unk>",
      "single_word": false,
      "lstrip": false,
      "rstrip": false,
      "normalized": false,
      "special": true
    },
    {
      "id": 4,
      "content": "<mask>",
      "single_word": false,
      "lstrip": false,
      "rstrip": false,
      "normalized": false,
      "special": true
    }
  ],
  "normalizer": null,
  "pre_tokenizer": {
    "type": "ByteLevel",
    "add_prefix_space": false,
    "trim_offsets": true,
    "use_regex": true
  },
  "post_processor": {
    "type": "ByteLevel",
    "add_prefix_space": true,
    "trim_offsets": false,
    "use_regex": true
  },
  "decoder": {
    "type": "ByteLevel",
    "add_prefix_space": true,
    "trim_offsets": true,
    "use_regex": true
  },
  "model": {
    "type": "BPE",
    "dropout": null,
    "unk_token": null,
    "continuing_subword_prefix": null,
    "end_of_word_suffix": null,
    "fuse_unk": false,
    "byte_fallback": false,
    "ignore_merges": false,
    "vocab": {
      "<s>": 0,
      "<pad>": 1,
      "</s>": 2,
      "<unk>": 3,
      "<mask>": 4,
      "!": 5,
      "\"": 6,
      "#": 7,
      "$": 8,
      "%": 9,
      "&": 10,
      "'": 11,
      "(": 12,
      ")": 13,
      "*": 14,
      "+": 15,
      ",": 16,
      "-": 17,
      ".": 18,
      "/": 19,
      "0": 20,
      "1": 21,
      "2": 22,
      "3": 23,
      "4": 24,
      "5": 25,
      "6": 26,
      "7": 27,
      "8": 28,
      "9": 29,
      ":": 30,
      ";": 31,
      "<": 32,
      "=": 33,
      ">": 34,
      "?": 35,
      "@": 36,
      "A": 37,
      "B": 38,
      "C": 39,
      "D": 40,
      "E": 41,
      "F": 42,
      "G": 43,
      "H": 44,
      "I": 45,
      "J": 46,
      "K": 47,
      "L": 48,
      "M": 49,
      "N": 50,
      "O": 51,
      "P": 52,
      "Q": 53,
      "R": 54,
      "S": 55,
      "T": 56,
      "U": 57,
      "V": 58,
      "W": 59,
      "X": 60,
      "Y": 61,
      "Z": 62,
      "[": 63,
      "\\": 64,
      "]": 65,
      "^": 66,
      "_": 67,
      "`": 68,
      "a": 69,
      "b": 70,
      "c": 71,
      "d": 72,
      "e": 73,
      "f": 74,
      "g": 75,
      "h": 76,
      "i": 77,
      "j": 78,
      "k": 79,
      "l": 80,
      "m": 81,
      "n": 82,
      "o": 83,
      "p": 84,
      "q": 85,
      "r": 86,
      "s": 87,
      "t": 88,
      "u": 89,
      "v": 90,
      "w": 91,
      "x": 92,
      "y": 93,
      "z": 94,
      "{": 95,
      "|": 96,
      "}": 97,
      "~": 98,
      "¡": 99,
      "¢": 100,
      "£": 101,
      "¤": 102,
      "¥": 103,
      "¦": 104,
      "§": 105,
      "¨": 106,
      "©": 107,
      "ª": 108,
      "«": 109,
      "¬": 110,
      "®": 111,
      "¯": 112,
      "°": 113,
      "±": 114,
      "²": 115,
      "³": 116,
      "´": 117,
      "µ": 118,
      "¶": 119,
      "·": 120,
      "¸": 121,
      "¹": 122,
      "º": 123,
      "»": 124,
      "¼": 125,
      "½": 126,
      "¾": 127,
      "¿": 128,
      "À": 129,
      "Á": 130,
      "Â": 131,
      "Ã": 132,
      "Ä": 133,
      "Å": 134,
      "Æ": 135,
      "Ç": 136,
      "È": 137,
      "É": 138,
      "Ê": 139,
      "Ë": 140,
      "Ì": 141,
      "Í": 142,
      "Î": 143,
      "Ï": 144,
      "Ð": 145,
      "Ñ": 146,
      "Ò": 147,
      "Ó": 148,
      "Ô": 149,
      "Õ": 150,
      "Ö": 151,
      "×": 152,
      "Ø": 153,
      "Ù": 154,
      "Ú": 155,
      "Û": 156,
      "Ü": 157,
      "Ý": 158,
      "Þ": 159,
      "ß": 160,
      "à": 161,
      "á": 162,
      "â": 163,
      "ã": 164,
      "ä": 165,
      "å": 166,
      "æ": 167,
      "ç": 168,
      "è": 169,
      "é": 170,
      "ê": 171,
      "ë": 172,
      "ì": 173,
      "í": 174,
      "î": 175,
      "ï": 176,
      "ð": 177,
      "ñ": 178,
      "ò": 179,
      "ó": 180,
      "ô": 181,
      "õ": 182,
      "ö": 183,
      "÷": 184,
      "ø": 185,
      "ù": 186,
      "ú": 187,
      "û": 188,
      "ü": 189,
      "ý": 190,
      "þ": 191,
      "ÿ": 192,
      "Ā": 193,
      "ā": 194,
      "Ă": 195,
      "ă": 196,
      "Ą": 197,
      "ą": 198,
      "Ć": 199,
      "ć": 200,
      "Ĉ": 201,
      "ĉ": 202,
      "Ċ": 203,
      "ċ": 204,
      "Č": 205,
      "č": 206,
      "Ď": 207,
      "ď": 208,
      "Đ": 209,
      "đ": 210,
      "Ē": 211,
      "ē": 212,
      "Ĕ": 213,
      "ĕ": 214,
      "Ė": 215,
      "ė": 216,
      "Ę": 217,
      "ę": 218,
      "Ě": 219,
      "ě": 220,
      "Ĝ": 221,
      "ĝ": 222,
      "Ğ": 223,
      "ğ": 224,
      "Ġ": 225,
      "ġ": 226,
      "Ģ": 227,
      "ģ": 228,
      "Ĥ": 229,
      "ĥ": 230,
      "Ħ": 231,
      "ħ": 232,
      "Ĩ": 233,
      "ĩ": 234,
      "Ī": 235,
      "ī": 236,
      "Ĭ": 237,
      "ĭ": 238,
      "Į": 239,
      "į": 240,
      "İ": 241,
      "ı": 242,
      "Ĳ": 243,
      "ĳ": 244,
      "Ĵ": 245,
      "ĵ": 246,
      "Ķ": 247,
      "ķ": 248,
      "ĸ": 249,
      "Ĺ": 250,
      "ĺ": 251,
      "Ļ": 252,
      "ļ": 253,
      "Ľ": 254,
      "ľ": 255,
      "Ŀ": 256,
      "ŀ": 257,
      "Ł": 258,
      "ł": 259,
      "Ń": 260,
      "Ġt": 261,
      "he": 262,
      "Ġa": 263,
      "in": 264,
      "ou": 265,
      "Ġthe": 266,
      "Ġw": 267,
      "re": 268,
      "Ġs": 269,
      "ha": 270,
      "on": 271,
      "er": 272,
      "it": 273,
      "Ġb": 274,
      "nd": 275,
      "is": 276,
      "Ġc": 277,
      "ĠĊ": 278,
      "Ġm": 279,
      "Ġo": 280,
      "Ġd": 281,
      "ing": 282,
      "Ġf": 283,
      "Ġy": 284,
      "ll": 285,
      "Ġto": 286,
      "an": 287,
      "or": 288,
      "es": 289,
      "ed": 290,
      "Ġyou": 291,
      "hat": 292,
      "en": 293,
      "Ġp": 294,
      "Ġg": 295,
      "Ġl": 296,
      "ar": 297,
      "Ġof": 298,
      "Ġand": 299,
      "as": 300,
      "Ġin": 301,
      "no": 302,
      "at": 303,
      "om": 304,
      "Ġhe": 305,
      "'s": 306,
      "Ġh": 307,
      "le": 308,
      "Ġha": 309,
      "Ġit": 310,
      "ĠI": 311,
      "ve": 312,
      "ay": 313,
      "ic": 314,
      "et": 315,
      "Ġon": 316,
      "Ġth": 317,
      "Ġthat": 318,
      "us": 319,
      "gh": 320,
      "id": 321,
      "Ġbe": 322,
      "oo": 323,
      "ld": 324,
      "al": 325,
      "Ġis": 326,
      "ut": 327,
      "ow": 328,
      "Ġno": 329,
      "Ġe": 330,
      "Ġwas": 331,
      "Ġwe": 332,
      "im": 333,
      "ke": 334,
      "ac": 335,
      "'t": 336,
      "ver": 337,
      "Ġre": 338,
      "ot": 339,
      "..": 340,
      "ad": 341,
      "Ġn": 342,
      "ght": 343,
      "ri": 344,
      "Ġfor": 345,
      "se": 346,
      "ir": 347,
      "ly": 348,
      "ion": 349,
      "am": 350,
      "ent": 351,
      "Ġdo": 352,
      "Ġ=": 353,
      "Ġst": 354,
      "Ġu": 355,
      "out": 356,
      "st": 357,
      "Ġk": 358,
      "ro": 359,
      "ith": 360,
      "The": 361,
      "ĠM": 362,
      "Ġme": 363,
      "ea": 364,
      "her": 365,
      "Ġwith": 366,
      "all": 367,
      "ome": 368,
      "ĠC": 369,
      "and": 370,
      "ĠS": 371,
      "Ġgo": 372,
      "Ġse": 373,
      "Ġli": 374,
      "âĢ": 375,
      "ch": 376,
      "Ġan": 377,
      "Ġas": 378,
      "ur": 379,
      "Ġat": 380,
      "ter": 381,
      "ould": 382,
      "Ġnot": 383,
      "Ġwh": 384,
      "Ġhave": 385,
      "ill": 386,
      "ĠA": 387,
      "ce": 388,
      "now": 389,
      "Ġthis": 390,
      "Ġare": 391,
      "ust": 392,
      "ell": 393,
      "ook": 394,
      "if": 395,
      "ant": 396,
      "ĠB": 397,
      "ct": 398,
      "il": 399,
      "Ġhis": 400,
      "Ġknow": 401,
      "un": 402,
      "xx": 403,
      "um": 404,
      "Ġone": 405,
      "Ġyour": 406,
      "ra": 407,
      "eah": 408,
      "Ġher": 409,
      "Ġj": 410,
      "...": 411,
      "Ġup": 412,
      "th": 413,
      "ie": 414,
      "here": 415,
      "Ġthey": 416,
      "Ġdon": 417,
      "Ġcan": 418,
      "Ġthere": 419,
      "Ġshe": 420,
      "ore": 421,
      "Ġne": 422,
      "op": 423,
      "Ġso": 424,
      "Ġhad": 425,
      "Ġmy": 426,
      "Ġwhat": 427,
      "Ġall": 428,
      "ge": 429,
      "rom": 430,
      "our": 431,
      "pp": 432,
      "ĠP": 433,
      "ain": 434,
      "ab": 435,
      "ĠĠ": 436,
      "Ġr": 437,
      "Ġ1": 438,
      "Ġlike": 439,
      "He": 440,
      "Ġsh": 441,
      "ĠT": 442,
      "Ġde": 443,
      "ood": 444,
      "oh": 445,
      "ack": 446,
      "ight": 447,
      "Ġsa": 448,
      "ĠD": 449,
      "Ġout": 450,
      "Ġhim": 451,
      "art": 452,
      "ck": 453,
      "ink": 454,
      "ul": 455,
      "ol": 456,
      "ake": 457,
      "ry": 458,
      "It": 459,
      "'re": 460,
      "Ġab": 461,
      "Ġbut": 462,
      "Ġpl": 463,
      "You": 464,
      "Ġget": 465,
      "Ġfrom": 466,
      "el": 467,
      "ess": 468,
      "ig": 469,
      "han": 470,
      "Ġ\"": 471,
      "ĠJ": 472,
      "very": 473,
      "ation": 474,
      "em": 475,
      "hen": 476,
      "right": 477,
      "ĠG": 478,
      "red": 479,
      "Ġal": 480,
      "you": 481,
      "ers": 482,
      "'m": 483,
      "Ġdid": 484,
      "est": 485,
      "Ġwere": 486,
      "qu": 487,
      "one": 488,
      "ĠF": 489,
      "ist": 490,
      "ĠL": 491,
      "na": 492,
      "Ġor": 493,
      "Ġsu": 494,
      "ound": 495,
      "ĠW": 496,
      "Ġby": 497,
      "what": 498,
      "ame": 499,
      "ind": 500,
      "ĠR": 501,
      "itt": 502,
      "os": 503,
      "Ġthem": 504,
      "ther": 505,
      "nt": 506,
      "Ġ2": 507,
      "ard": 508,
      "ĠH": 509,
      "res": 510,
      "ong": 511,
      "Ġcom": 512,
      "Ġsome": 513,
      "Ġthink": 514,
      "Ġabout": 515,
      "Ġgot": 516,
      "ak": 517,
      "Ġhere": 518,
      "own": 519,
      "ast": 520,
      "use": 521,
      "Ġwant": 522,
      "ive": 523,
      "Ġjust": 524,
      "ally": 525,
      "Ġwor": 526,
      "Ġlook": 527,
      "].": 528,
      "ĠN": 529,
      "Ġsp": 530,
      "Ġsee": 531,
      "'ll": 532,
      "Ġwould": 533,
      "Ġcon": 534,
      "yeah": 535,
      "Ġsaid": 536,
      "ap": 537,
      "ate": 538,
      "Ġv": 539,
      "ep": 540,
      "ick": 541,
      "ĠE": 542,
      "--": 543,
      "Ġif": 544,
      "xxx": 545,
      "ice": 546,
      "hi": 547,
      "Ġex": 548,
      "kay": 549,
      "fe": 550,
      "ven": 551,
      "Ġany": 552,
      "ort": 553,
      "ime": 554,
      "ber": 555,
      "ich": 556,
      "od": 557,
      "Ġwho": 558,
      "ough": 559,
      "Ġman": 560,
      "Ġthen": 561,
      "Ġsay": 562,
      "Ġus": 563,
      "Ġwhen": 564,
      "ag": 565,
      "Ġright": 566,
      "are": 567,
      "ine": 568,
      "Ġtw": 569,
      "ide": 570,
      "Ġnow": 571,
      ".\"": 572,
      "Ġwill": 573,
      "hing": 574,
      "Ġpro": 575,
      "that": 576,
      "Ġ(": 577,
      "Ġint": 578,
      "ittle": 579,
      "ies": 580,
      "ous": 581,
      "Ġ[": 582,
      "ear": 583,
      "au": 584,
      "Ġbo": 585,
      "Ġback": 586,
      "Ġdown": 587,
      "Ġag": 588,
      "ost": 589,
      "Ġ20": 590,
      "ause": 591,
      "Ġlittle": 592,
      "ose": 593,
      "way": 594,
      "Ġer": 595,
      "Ġgoing": 596,
      "Ġbeen": 597,
      "Ġtime": 598,
      "Ġput": 599,
      "ĠO": 600,
      "âĢĻ": 601,
      "'ve": 602,
      "Ġcould": 603,
      "we": 604,
      "Ġ19": 605,
      "Ġgood": 606,
      "Ġover": 607,
      "lf": 608,
      "âĢľ": 609,
      "Ġcl": 610,
      "ity": 611,
      "ove": 612,
      "And": 613,
      "Ġhas": 614,
      "Ġoff": 615,
      "ne": 616,
      "uh": 617,
      "end": 618,
      "ace": 619,
      "Ġar": 620,
      "Ġmore": 621,
      "Ġvery": 622,
      "ree": 623,
      "Ġtoo": 624,
      "my": 625,
      "Ġwhich": 626,
      "ite": 627,
      "HI": 628,
      "What": 629,
      "âĢĿ": 630,
      "the": 631,
      "so": 632,
      "cause": 633,
      "Ġqu": 634,
      ",\"": 635,
      "ĠĠĠĠ": 636,
      "Ġother": 637,
      "Ġtwo": 638,
      "Ġtheir": 639,
      "Ġplay": 640,
      "Ġthing": 641,
      "Ġtr": 642,
      "ure": 643,
      "ft": 644,
      "Ġro": 645,
      "Ġpe": 646,
      "Ġfe": 647,
      "Ġxxx": 648,
      "ud": 649,
      "ment": 650,
      "ish": 651,
      "reat": 652,
      "alk": 653,
      "ĠK": 654,
      "Ġle": 655,
      "Ġaf": 656,
      "Ġbl": 657,
      "Ġcome": 658,
      "Ġbr": 659,
      "onna": 660,
      "Yeah": 661,
      "pe": 662,
      "Oh": 663,
      "ase": 664,
      "yes": 665,
      "other": 666,
      "urn": 667,
      "hy": 668,
      "ond": 669,
      "omet": 670,
      "iss": 671,
      "ue": 672,
      "ought": 673,
      "Ġgonna": 674,
      "But": 675,
      "ian": 676,
      "Ġgr": 677,
      "She": 678,
      "hed": 679,
      "No": 680,
      "orn": 681,
      "uck": 682,
      "Ġinto": 683,
      "ps": 684,
      "We": 685,
      "ople": 686,
      "ho": 687,
      "Ġagain": 688,
      "age": 689,
      "Ġmake": 690,
      "Ġhow": 691,
      "ĠU": 692,
      "Ġway": 693,
      "be": 694,
      "irst": 695,
      "iv": 696,
      "ty": 697,
      "ia": 698,
      "ount": 699,
      "Ġam": 700,
      "Ġthan": 701,
      "ble": 702,
      "ass": 703,
      "ire": 704,
      "te": 705,
      "ary": 706,
      "ade": 707,
      "Th": 708,
      "Ġwhere": 709,
      "do": 710,
      "Ġen": 711,
      "pl": 712,
      "Ġtake": 713,
      "Ġdoes": 714,
      "Ġwork": 715,
      "Ġpeople": 716,
      "Ġsomet": 717,
      "Ġwell": 718,
      "act": 719,
      "They": 720,
      "ater": 721,
      "In": 722,
      "Ġco": 723,
      "pt": 724,
      "okay": 725,
      "Ġ'": 726,
      "uch": 727,
      "ov": 728,
      "OT": 729,
      "Ġneed": 730,
      "Ġmean": 731,
      "That": 732,
      "Ġlet": 733,
      "self": 734,
      "Ġfirst": 735,
      "Ġday": 736,
      "per": 737,
      "ise": 738,
      "Ġhand": 739,
      "Ġtell": 740,
      "har": 741,
      "Ġcall": 742,
      "av": 743,
      "les": 744,
      "ress": 745,
      "ang": 746,
      "ull": 747,
      "ci": 748,
      "Ġpart": 749,
      "ah": 750,
      "ather": 751,
      "ord": 752,
      "ff": 753,
      "Ġafter": 754,
      "Ġshould": 755,
      "where": 756,
      "mer": 757,
      "Well": 758,
      "Ġbet": 759,
      "Ġfl": 760,
      "augh": 761,
      "ren": 762,
      "Ġour": 763,
      "fore": 764,
      "ting": 765,
      "wn": 766,
      "nder": 767,
      "CHI": 768,
      "Ġmuch": 769,
      "hm": 770,
      "thing": 771,
      "Ġcar": 772,
      "ady": 773,
      "able": 774,
      "Ġthr": 775,
      "ach": 776,
      "ĠSt": 777,
      "ys": 778,
      "Ġpo": 779,
      "ile": 780,
      "Ġevery": 781,
      "ru": 782,
      "Ġdidn": 783,
      "Ġun": 784,
      "Ġonly": 785,
      "there": 786,
      "Yes": 787,
      "anna": 788,
      "Ġpre": 789,
      "ance": 790,
      "ool": 791,
      "Ġyear": 792,
      "iz": 793,
      "hild": 794,
      "irl": 795,
      "Ġte": 796,
      "cc": 797,
      "Ġsc": 798,
      "Ġsec": 799,
      "ark": 800,
      "ouse": 801,
      "Ġgu": 802,
      "ng": 803,
      "Ġreally": 804,
      "Ġsomething": 805,
      "Ġpr": 806,
      "Ġmade": 807,
      "cl": 808,
      "day": 809,
      "Ġthese": 810,
      "int": 811,
      "Ġhapp": 812,
      "ict": 813,
      "Ġdis": 814,
      "ob": 815,
      "Ġwr": 816,
      "This": 817,
      "get": 818,
      "ated": 819,
      "Ġchild": 820,
      "Ġlong": 821,
      "So": 822,
      "ĠMr": 823,
      "Ġtalk": 824,
      "ub": 825,
      "ory": 826,
      "?\"": 827,
      "Ġad": 828,
      "Ġsm": 829,
      "hes": 830,
      "ĠV": 831,
      "There": 832,
      "Ġaway": 833,
      "ions": 834,
      "Ġbefore": 835,
      "oc": 836,
      "og": 837,
      "'d": 838,
      "ied": 839,
      "Ġunder": 840,
      "ward": 841,
      "Ġgirl": 842,
      "Ġim": 843,
      "Ġbecause": 844,
      "Ġke": 845,
      "Ġcomp": 846,
      "ving": 847,
      "Ġrem": 848,
      "ody": 849,
      "ence": 850,
      "Ġact": 851,
      ".]": 852,
      "Ġwanna": 853,
      "oll": 854,
      "Ġbig": 855,
      "Ġdoing": 856,
      "Ġwent": 857,
      "man": 858,
      "atch": 859,
      "Ġsha": 860,
      "gg": 861,
      "Ġper": 862,
      "Ġthree": 863,
      "Ġthose": 864,
      "ens": 865,
      "Ġhel": 866,
      "but": 867,
      "Ġnever": 868,
      "dy": 869,
      "Ġask": 870,
      "Ġalso": 871,
      "Ġthought": 872,
      "Ġold": 873,
      "ful": 874,
      "ip": 875,
      "Ġturn": 876,
      "Ġch": 877,
      "ix": 878,
      "Ġapp": 879,
      "Ġhome": 880,
      "ild": 881,
      "riend": 882,
      "ons": 883,
      "can": 884,
      "ling": 885,
      "laugh": 886,
      "¿½": 887,
      "ï¿½": 888,
      "old": 889,
      "Ġmay": 890,
      "ĠY": 891,
      "Ġcame": 892,
      "Ġ201": 893,
      "look": 894,
      "Ġthings": 895,
      "ock": 896,
      "aby": 897,
      "nother": 898,
      "ks": 899,
      "well": 900,
      "Ġcr": 901,
      "00": 902,
      "let": 903,
      "Ġnew": 904,
      "ect": 905,
      "Ġbook": 906,
      "oot": 907,
      "ans": 908,
      "Ġeven": 909,
      "ors": 910,
      "Ġcont": 911,
      "lease": 912,
      "ried": 913,
      "Ġbit": 914,
      "Ġhead": 915,
      "Ġbu": 916,
      "Ġmust": 917,
      "Ġgreat": 918,
      "ath": 919,
      "ved": 920,
      "Ġfind": 921,
      "Ġdone": 922,
      "oy": 923,
      "Ġthrough": 924,
      "Ġstart": 925,
      "ily": 926,
      "Ġlove": 927,
      "ave": 928,
      "ny": 929,
      "Ġanother": 930,
      "Ġsl": 931,
      "ings": 932,
      "Ġhouse": 933,
      "up": 934,
      "aking": 935,
      "aw": 936,
      "ait": 937,
      "Ġgive": 938,
      "come": 939,
      "MOT": 940,
      "Ġtry": 941,
      "Ġhelp": 942,
      "Ġstill": 943,
      "Ġboy": 944,
      "ious": 945,
      "Ġlea": 946,
      "Ġeat": 947,
      "HE": 948,
      "Ġlast": 949,
      "Ġres": 950,
      "Ġmany": 951,
      "ign": 952,
      "air": 953,
      "Ġname": 954,
      "ww": 955,
      "igh": 956,
      "Ġshow": 957,
      "ĠCh": 958,
      "akes": 959,
      "xt": 960,
      "Ġcha": 961,
      "tain": 962,
      "Ġwon": 963,
      "Ġra": 964,
      "ars": 965,
      "ened": 966,
      "Ġser": 967,
      "Ġmight": 968,
      "If": 969,
      "als": 970,
      "âĻ": 971,
      "Ġchan": 972,
      "ves": 973,
      "ates": 974,
      "ually": 975,
      "Ġmin": 976,
      "orm": 977,
      "How": 978,
      "Ġlot": 979,
      "ummy": 980,
      "land": 981,
      "IN": 982,
      "Ġfound": 983,
      "li": 984,
      "Ġmother": 985,
      "Ġkind": 986,
      "laughs": 987,
      "ĠUn": 988,
      "Ġbel": 989,
      "âĻª": 990,
      "Ġche": 991,
      "Ġnight": 992,
      "Ġdif": 993,
      "ult": 994,
      "anc": 995,
      "Ġcomm": 996,
      "port": 997,
      "chool": 998,
      "Ġmov": 999,
      "side": 1000,
      "Ġcount": 1001,
      "oney": 1002,
      "Ġrec": 1003,
      "Ġhar": 1004,
      "body": 1005,
      "Ġop": 1006,
      ".âĢĿ": 1007,
      "Ġmost": 1008,
      "ail": 1009,
      "Ġown": 1010,
      "Ġcalled": 1011,
      "Ġbaby": 1012,
      "Ġfeel": 1013,
      "oss": 1014,
      "Ġfriend": 1015,
      "rent": 1016,
      "ye": 1017,
      "ember": 1018,
      "und": 1019,
      "Ġused": 1020,
      "ĠĠĠĠĠĠĠĠ": 1021,
      "ever": 1022,
      "Ġbot": 1023,
      "Ġbetter": 1024,
      "Ġel": 1025,
      "Ġmom": 1026,
      "Ġcare": 1027,
      "Ġaround": 1028,
      "Ġerm": 1029,
      "Ġuh": 1030,
      "Ġsuch": 1031,
      "Ġend": 1032,
      "huh": 1033,
      "Ġyears": 1034,
      "Ġatt": 1035,
      "imes": 1036,
      "Ġlife": 1037,
      "Ġwhy": 1038,
      "Ġlooks": 1039,
      "Ġdes": 1040,
      "uc": 1041,
      "Ġokay": 1042,
      "Ġbeing": 1043,
      "orry": 1044,
      "Ġplace": 1045,
      "addy": 1046,
      "Ġits": 1047,
      "Ġtra": 1048,
      "Ġseem": 1049,
      "Ġkeep": 1050,
      "rest": 1051,
      "ER": 1052,
      "Ġfour": 1053,
      "Ġ.": 1054,
      "ical": 1055,
      "inn": 1056,
      "Ġsit": 1057,
      "ee": 1058,
      "ways": 1059,
      "row": 1060,
      "how": 1061,
      "ited": 1062,
      "ew": 1063,
      "Ġanything": 1064,
      "ction": 1065,
      "Ġsure": 1066,
      "Ġgl": 1067,
      "ince": 1068,
      "oun": 1069,
      "ple": 1070,
      "Ġwater": 1071,
      "Ġsame": 1072,
      "ank": 1073,
      "Ġisn": 1074,
      "ĠFr": 1075,
      "hank": 1076,
      "Ġwhile": 1077,
      "Ġsupp": 1078,
      "Ġstr": 1079,
      "Ġyeah": 1080,
      "vers": 1081,
      "Ġnice": 1082,
      "ican": 1083,
      "she": 1084,
      "led": 1085,
      "Ġroom": 1086,
      "ute": 1087,
      "ations": 1088,
      "Ġcour": 1089,
      "ident": 1090,
      "ta": 1091,
      "Ġpol": 1092,
      "Ġball": 1093,
      "Ġdoesn": 1094,
      "Ġfin": 1095,
      "ph": 1096,
      "Ġmon": 1097,
      "Ġtold": 1098,
      "ss": 1099,
      "this": 1100,
      "Ġschool": 1101,
      "bab": 1102,
      "Ġrun": 1103,
      "mm": 1104,
      "Do": 1105,
      "Ġyes": 1106,
      "Ġfar": 1107,
      "Now": 1108,
      "Ġelse": 1109,
      "outh": 1110,
      "ds": 1111,
      "ition": 1112,
      "Why": 1113,
      "Ġnext": 1114,
      "atter": 1115,
      "Ġbre": 1116,
      "Ġset": 1117,
      "Ġ3": 1118,
      "ont": 1119,
      "ung": 1120,
      "Ġcle": 1121,
      "ins": 1122,
      "Ġear": 1123,
      "Ġdist": 1124,
      "Ġleft": 1125,
      "ĠBr": 1126,
      "Ġalways": 1127,
      "mhm": 1128,
      "!\"": 1129,
      "Ġwee": 1130,
      "mber": 1131,
      "Ġpres": 1132,
      "Ġbeg": 1133,
      "ug": 1134,
      "Then": 1135,
      "Ġdiffe": 1136,
      "Ġstop": 1137,
      "ness": 1138,
      "Ġsw": 1139,
      "ream": 1140,
      "ret": 1141,
      "Ġread": 1142,
      "Ġ200": 1143,
      "Ġhard": 1144,
      "aught": 1145,
      "Ġfather": 1146,
      "they": 1147,
      "ĠAmer": 1148,
      "Ġacc": 1149,
      "ohn": 1150,
      "âĢĵ": 1151,
      "Ġbus": 1152,
      "Ġface": 1153,
      "Ġmen": 1154,
      "ms": 1155,
      "Ġunt": 1156,
      "not": 1157,
      "Ġfun": 1158,
      "Ġdr": 1159,
      "Ġpret": 1160,
      ",âĢĿ": 1161,
      "Ġtook": 1162,
      "----": 1163,
      "Ġpoint": 1164,
      "Ġsaw": 1165,
      "Ġac": 1166,
      "vel": 1167,
      "Ġmoney": 1168,
      "Ġquite": 1169,
      "mp": 1170,
      "Ġdra": 1171,
      "ĠMar": 1172,
      "wh": 1173,
      "AN": 1174,
      "Ġgone": 1175,
      "Ġcol": 1176,
      "leep": 1177,
      "Ġfam": 1178,
      "Ġ202": 1179,
      "ĠCHI": 1180,
      "gr": 1181,
      "Ġob": 1182,
      "\".": 1183,
      "Ġwalk": 1184,
      "AT": 1185,
      "ows": 1186,
      "ES": 1187,
      "Ġwait": 1188,
      "me": 1189,
      "who": 1190,
      "Ġuse": 1191,
      "ished": 1192,
      "der": 1193,
      "Ġhold": 1194,
      "Ġkne": 1195,
      "When": 1196,
      "Don": 1197,
      "ane": 1198,
      "de": 1199,
      "pect": 1200,
      "Ġenough": 1201,
      "Ġsur": 1202,
      "Ġhear": 1203,
      "Ġbed": 1204,
      "Ġplease": 1205,
      "erson": 1206,
      "Ġthough": 1207,
      "Ġgoes": 1208,
      "br": 1209,
      "Ġbox": 1210,
      "ec": 1211,
      "Ġuntil": 1212,
      "Ġsays": 1213,
      "OU": 1214,
      "to": 1215,
      "go": 1216,
      "Ġever": 1217,
      "Ġreal": 1218,
      "uff": 1219,
      "Ġstand": 1220,
      "ump": 1221,
      "Ġnum": 1222,
      "Ġreg": 1223,
      "Ġcoming": 1224,
      "gether": 1225,
      "ush": 1226,
      "amp": 1227,
      "Ġdoor": 1228,
      "On": 1229,
      "Ġcourse": 1230,
      "Ġret": 1231,
      "Ġwar": 1232,
      "Ġfive": 1233,
      "ject": 1234,
      "vent": 1235,
      "orning": 1236,
      "don": 1237,
      "Ġside": 1238,
      "az": 1239,
      "ces": 1240,
      "ister": 1241,
      "Ġknown": 1242,
      "Ġele": 1243,
      "Ġwom": 1244,
      "Ġstay": 1245,
      "Ġpass": 1246,
      "Ġopen": 1247,
      "cle": 1248,
      "Ġeyes": 1249,
      "eak": 1250,
      "Ġ18": 1251,
      "ason": 1252,
      "Ġfew": 1253,
      "ower": 1254,
      "ational": 1255,
      "Ġbest": 1256,
      "Ġasked": 1257,
      "ning": 1258,
      "Ġtoday": 1259,
      "ible": 1260,
      "Okay": 1261,
      "ĠHe": 1262,
      "why": 1263,
      "ries": 1264,
      "Ġter": 1265,
      "Ġyoung": 1266,
      "rew": 1267,
      "ired": 1268,
      "Ġlight": 1269,
      "Ġbelie": 1270,
      "Ġfr": 1271,
      "Ġyet": 1272,
      "Ġair": 1273,
      "St": 1274,
      "Ġseen": 1275,
      "Ġum": 1276,
      "ger": 1277,
      "ames": 1278,
      "fta": 1279,
      "All": 1280,
      "tern": 1281,
      "Ġchildren": 1282,
      "Ġupon": 1283,
      "ope": 1284,
      "orth": 1285,
      "ball": 1286,
      "Come": 1287,
      "sh": 1288,
      "ross": 1289,
      "Ġfell": 1290,
      "aper": 1291,
      "Ġsecond": 1292,
      "ased": 1293,
      "Ġsing": 1294,
      "Ġdifferent": 1295,
      "urt": 1296,
      "Ġmorning": 1297,
      "Ġchar": 1298,
      "Ġnear": 1299,
      "ial": 1300,
      "fect": 1301,
      "Ġpick": 1302,
      "uring": 1303,
      "put": 1304,
      "Ġent": 1305,
      "ween": 1306,
      "Ġhafta": 1307,
      "ash": 1308,
      "Ġhands": 1309,
      ").": 1310,
      "Ġ_": 1311,
      "eb": 1312,
      "ĠâĢľ": 1313,
      "Ġfall": 1314,
      "Is": 1315,
      "Ġnothing": 1316,
      "Ġtogether": 1317,
      "Ġsorry": 1318,
      "Ġlooking": 1319,
      "Ġkill": 1320,
      "Be": 1321,
      "Ġdear": 1322,
      "ures": 1323,
      "My": 1324,
      "Ġmar": 1325,
      "Ġmind": 1326,
      "ines": 1327,
      "Ġsix": 1328,
      "bo": 1329,
      "Let": 1330,
      "Ġgetting": 1331,
      "Ġlist": 1332,
      "Ġround": 1333,
      "any": 1334,
      "ĠTHE": 1335,
      "ork": 1336,
      "Ġrel": 1337,
      "did": 1338,
      "As": 1339,
      "ating": 1340,
      "ollow": 1341,
      "Ġrest": 1342,
      "Ġhimself": 1343,
      "less": 1344,
      "Ġri": 1345,
      "Er": 1346,
      "its": 1347,
      "Ġleave": 1348,
      "Ġremember": 1349,
      "ĠAl": 1350,
      "mb": 1351,
      "Ġsound": 1352,
      "most": 1353,
      "Ġbetween": 1354,
      "Ġsmall": 1355,
      "Ġmil": 1356,
      "Not": 1357,
      "oor": 1358,
      "ener": 1359,
      "Ġonce": 1360,
      "ten": 1361,
      "Ġsil": 1362,
      "Ġred": 1363,
      "stand": 1364,
      "unt": 1365,
      "ctor": 1366,
      "Ġbro": 1367,
      "ĠNew": 1368,
      "ĠMiss": 1369,
      "une": 1370,
      "Ġboth": 1371,
      "ange": 1372,
      "Ġwatch": 1373,
      "omb": 1374,
      "Ġbad": 1375,
      "Ġeach": 1376,
      "Ġheart": 1377,
      "Ġheard": 1378,
      "Ġbir": 1379,
      "Ġpie": 1380,
      "ale": 1381,
      "Ġtable": 1382,
      "ib": 1383,
      "ular": 1384,
      "Ġhaving": 1385,
      "Ġwithout": 1386,
      "Ġsleep": 1387,
      "reen": 1388,
      "ton": 1389,
      "Ġanim": 1390,
      "Ġhalf": 1391,
      "ĠJohn": 1392,
      "Ġdri": 1393,
      "ĠAmerican": 1394,
      "Ġlater": 1395,
      "ON": 1396,
      "Ġcap": 1397,
      "Ġworld": 1398,
      "Ġoh": 1399,
      "Ġfoot": 1400,
      "ĠYou": 1401,
      "ents": 1402,
      "ets": 1403,
      "Ġcons": 1404,
      "ters": 1405,
      "rist": 1406,
      "ma": 1407,
      "Ġshall": 1408,
      "Ġdec": 1409,
      "Ġnoise": 1410,
      "Ġknew": 1411,
      "form": 1412,
      "Ġsoon": 1413,
      "ready": 1414,
      "ommy": 1415,
      "Ġperson": 1416,
      "Ġwind": 1417,
      "Ġtop": 1418,
      "ged": 1419,
      "app": 1420,
      "ĠAr": 1421,
      "Ġagainst": 1422,
      "ises": 1423,
      "ocal": 1424,
      "Ġdied": 1425,
      "ĠMrs": 1426,
      "Ġsort": 1427,
      "Ġmaking": 1428,
      "Ġmatter": 1429,
      "ama": 1430,
      "Ġlooked": 1431,
      "Ġhigh": 1432,
      "Ġdire": 1433,
      "Ġinst": 1434,
      "ING": 1435,
      "Ġhappened": 1436,
      "ared": 1437,
      "Ġwanted": 1438,
      "ï¿½ï¿½": 1439,
      "Ġinte": 1440,
      "Ġchair": 1441,
      "www": 1442,
      "Ġtalking": 1443,
      "ined": 1444,
      "Ġph": 1445,
      "den": 1446,
      "ĠMOT": 1447,
      "cept": 1448,
      "Ġ4": 1449,
      "ĠInd": 1450,
      "tle": 1451,
      "ok": 1452,
      "aut": 1453,
      "Ġ199": 1454,
      "pr": 1455,
      "\",": 1456,
      "Uh": 1457,
      "Ġmus": 1458,
      "ife": 1459,
      "ched": 1460,
      "ision": 1461,
      "Ġpop": 1462,
      "Ġpretty": 1463,
      "iet": 1464,
      "Ġdep": 1465,
      "Ġsk": 1466,
      "ertain": 1467,
      "Ġhaven": 1468,
      "Ġeverything": 1469,
      "Ġfollow": 1470,
      "OR": 1471,
      "oe": 1472,
      "uss": 1473,
      "Ġlive": 1474,
      "Ġmeet": 1475,
      "Mm": 1476,
      "Hey": 1477,
      "Ġans": 1478,
      "Ġbec": 1479,
      "ier": 1480,
      "At": 1481,
      "key": 1482,
      "Ġmiss": 1483,
      "Ġblack": 1484,
      "ĠUnited": 1485,
      "),": 1486,
      "Ġtri": 1487,
      "osed": 1488,
      "Ġhour": 1489,
      "Ġind": 1490,
      "Ġ5": 1491,
      "ither": 1492,
      "Ġi": 1493,
      "wards": 1494,
      "AR": 1495,
      "Ġnumber": 1496,
      "Ġvo": 1497,
      "Ġinterest": 1498,
      "Ġmove": 1499,
      "cial": 1500,
      "Ġgave": 1501,
      "Ġlar": 1502,
      "ĠThe": 1503,
      "ern": 1504,
      "med": 1505,
      "ex": 1506,
      "ubl": 1507,
      "Ġmoment": 1508,
      "Ġdays": 1509,
      "ches": 1510,
      "Ġtown": 1511,
      "Ġass": 1512,
      "Ġfamily": 1513,
      "by": 1514,
      "Ġdog": 1515,
      "hip": 1516,
      "Ġfire": 1517,
      "clud": 1518,
      "Ġgame": 1519,
      "IS": 1520,
      "ts": 1521,
      "Ġsub": 1522,
      "bably": 1523,
      "ual": 1524,
      "iness": 1525,
      "ĠDe": 1526,
      "Ġready": 1527,
      "Ġbreak": 1528,
      "Ġquest": 1529,
      "Ġwond": 1530,
      "ike": 1531,
      "ised": 1532,
      "Ġcity": 1533,
      "good": 1534,
      "Ġbelieve": 1535,
      "ĠEng": 1536,
      "Ġinv": 1537,
      "Ġid": 1538,
      "cha": 1539,
      "For": 1540,
      "Ġborn": 1541,
      "ĠEd": 1542,
      "Mr": 1543,
      "ĠGr": 1544,
      "Ġfood": 1545,
      "sel": 1546,
      "ced": 1547,
      "Just": 1548,
      "Ġactually": 1549,
      "ax": 1550,
      "wo": 1551,
      "pped": 1552,
      "Ġdar": 1553,
      "Ġmet": 1554,
      "see": 1555,
      "ĠGer": 1556,
      "Ġadd": 1557,
      "Ġbring": 1558,
      "Ġtrying": 1559,
      "Ġstory": 1560,
      "Ġalong": 1561,
      "Ġwhole": 1562,
      "Ġcut": 1563,
      "Ġfact": 1564,
      "ully": 1565,
      "io": 1566,
      "Ġeight": 1567,
      "ony": 1568,
      "Ġboys": 1569,
      "Ġsince": 1570,
      "Ġpaper": 1571,
      "Ġ,": 1572,
      "Ġhor": 1573,
      "Ġkid": 1574,
      "Ġeas": 1575,
      "ield": 1576,
      "LL": 1577,
      "Ġpict": 1578,
      "enty": 1579,
      "Right": 1580,
      "uth": 1581,
      "Ġinter": 1582,
      "ative": 1583,
      "oon": 1584,
      "Ġhat": 1585,
      "ics": 1586,
      "Ġwasn": 1587,
      "ĠGod": 1588,
      "enn": 1589,
      "orrow": 1590,
      "Ġteam": 1591,
      "arr": 1592,
      "ats": 1593,
      "Ġunderstand": 1594,
      "ped": 1595,
      "vern": 1596,
      "ants": 1597,
      "aj": 1598,
      "elt": 1599,
      "Ġcomes": 1600,
      "Ġalmost": 1601,
      "ery": 1602,
      "Ġstarted": 1603,
      "Where": 1604,
      "Ġjob": 1605,
      "ted": 1606,
      "Ġimp": 1607,
      "Ġsaying": 1608,
      "Ġdraw": 1609,
      "Ġalready": 1610,
      "Ġreturn": 1611,
      "Ġdisc": 1612,
      "ĠAn": 1613,
      "Ġspeak": 1614,
      "ĠStates": 1615,
      "19": 1616,
      "aken": 1617,
      "Are": 1618,
      "sha": 1619,
      "aster": 1620,
      "fter": 1621,
      "Ġstuff": 1622,
      "Who": 1623,
      "Al": 1624,
      "ered": 1625,
      "Ġclose": 1626,
      "Ġstick": 1627,
      "ities": 1628,
      "Ġdarling": 1629,
      "ouch": 1630,
      "ĠTh": 1631,
      "Ġref": 1632,
      "ina": 1633,
      "Ġposs": 1634,
      "Ġhot": 1635,
      "rict": 1636,
      "ives": 1637,
      "His": 1638,
      "Ġwhe": 1639,
      "Ġwouldn": 1640,
      "Ġ198": 1641,
      "Ġdrink": 1642,
      "Ġsqu": 1643,
      "Ġlaugh": 1644,
      "Ġsign": 1645,
      "Ġswe": 1646,
      "Ġland": 1647,
      "oke": 1648,
      "cted": 1649,
      "Ġwonder": 1650,
      "Ġsent": 1651,
      "Ġtimes": 1652,
      "kes": 1653,
      "Ã©": 1654,
      "Ġguess": 1655,
      "Ġword": 1656,
      "Ġbrother": 1657,
      "Ġwoman": 1658,
      "âĢĺ": 1659,
      "oup": 1660,
      "Ġdoll": 1661,
      "Ġplayed": 1662,
      "Ġplaying": 1663,
      "ĠIn": 1664,
      "ues": 1665,
      "Ġdro": 1666,
      "ner": 1667,
      "Ġhair": 1668,
      "Ġ6": 1669,
      "Ġbuild": 1670,
      "Did": 1671,
      "Ġson": 1672,
      "EN": 1673,
      "just": 1674,
      "hey": 1675,
      "Ġproble": 1676,
      "Ġcent": 1677,
      "Ġwrong": 1678,
      "ying": 1679,
      "like": 1680,
      "Ġminute": 1681,
      "iew": 1682,
      "Thank": 1683,
      "Ġthir": 1684,
      "Ġfeet": 1685,
      "Ġvoice": 1686,
      "Ġfriends": 1687,
      "Ġï¿½": 1688,
      "?âĢĿ": 1689,
      "Ġpay": 1690,
      "Ġrep": 1691,
      "Ġprobably": 1692,
      "Ġpull": 1693,
      "Ġinclud": 1694,
      "Ġhope": 1695,
      "Ġsy": 1696,
      "Ġgi": 1697,
      "ense": 1698,
      "Ġduring": 1699,
      "ĠWhat": 1700,
      "ĠChrist": 1701,
      "Ġext": 1702,
      "du": 1703,
      "Ġmonth": 1704,
      "Ġcountry": 1705,
      "Ġfloor": 1706,
      "itting": 1707,
      "Look": 1708,
      "ĠCha": 1709,
      "Ġste": 1710,
      "Ġstra": 1711,
      "Ġexc": 1712,
      "gs": 1713,
      "aybe": 1714,
      "Ġwhite": 1715,
      "ital": 1716,
      "Ġmeans": 1717,
      "Ġfull": 1718,
      "Mummy": 1719,
      "ently": 1720,
      "Ġplan": 1721,
      "Ġ8": 1722,
      "haps": 1723,
      "Ġconf": 1724,
      "undred": 1725,
      "ĠCl": 1726,
      "Ġexp": 1727,
      "Ġidea": 1728,
      "child": 1729,
      "aces": 1730,
      "Ġsim": 1731,
      "airs": 1732,
      "ĠJap": 1733,
      "ster": 1734,
      "Ġbrought": 1735,
      "Ġthank": 1736,
      "Ġmovie": 1737,
      "Ġbecame": 1738,
      "ĠZ": 1739,
      "Ġlost": 1740,
      "ones": 1741,
      "Ġdeath": 1742,
      "Ġten": 1743,
      "Good": 1744,
      "sing": 1745,
      "Ġstud": 1746,
      "Ġstate": 1747,
      "Ġyourself": 1748,
      "Ġseemed": 1749,
      "Ġtrain": 1750,
      "ize": 1751,
      "Ġones": 1752,
      "Ġrather": 1753,
      "ĠCount": 1754,
      "Ġpur": 1755,
      "room": 1756,
      "thank": 1757,
      "ley": 1758,
      "Ġform": 1759,
      "ages": 1760,
      "ĠIt": 1761,
      "Ġcoll": 1762,
      "Ġcur": 1763,
      "Ġhundred": 1764,
      "eth": 1765,
      "inner": 1766,
      "Ġ7": 1767,
      "enc": 1768,
      "Ġcertain": 1769,
      "Ġbeaut": 1770,
      "cess": 1771,
      "ĠâĢĵ": 1772,
      "ald": 1773,
      "Ġple": 1774,
      "Ġsir": 1775,
      "Can": 1776,
      "Ġshort": 1777,
      "Ġgirls": 1778,
      "One": 1779,
      "Ġcontin": 1780,
      "night": 1781,
      "ric": 1782,
      "Ġturned": 1783,
      "Ġbegan": 1784,
      "bles": 1785,
      "Ġage": 1786,
      "hind": 1787,
      "Ġcra": 1788,
      "Ġgotta": 1789,
      "wer": 1790,
      "RE": 1791,
      "Ġcat": 1792,
      "Ġweek": 1793,
      "ote": 1794,
      "ask": 1795,
      "Ġexpl": 1796,
      "Ġaw": 1797,
      "ese": 1798,
      "eter": 1799,
      "Ġmusic": 1800,
      "aid": 1801,
      "ene": 1802,
      "ĠMummy": 1803,
      "Ġgener": 1804,
      "Ġ197": 1805,
      "Ġwords": 1806,
      "ĠNo": 1807,
      "Ġinc": 1808,
      "Ġblue": 1809,
      "ĠâĻª": 1810,
      "Ġpain": 1811,
      "got": 1812,
      "ober": 1813,
      "Ġlead": 1814,
      "ellow": 1815,
      "Ġmaybe": 1816,
      "ief": 1817,
      "Ġmag": 1818,
      "ided": 1819,
      "ments": 1820,
      "Ġspe": 1821,
      "Ġfront": 1822,
      "Ġgrand": 1823,
      "ĠIs": 1824,
      "Ġfine": 1825,
      "ape": 1826,
      "Ġmyself": 1827,
      "ention": 1828,
      "]?": 1829,
      "Ġtaken": 1830,
      "omm": 1831,
      "ĠFl": 1832,
      "Ġgra": 1833,
      "Ġmouth": 1834,
      "Ġpoor": 1835,
      "Ġquick": 1836,
      "Ġprom": 1837,
      "Ġmakes": 1838,
      "ison": 1839,
      "Ġfav": 1840,
      "ured": 1841,
      "utes": 1842,
      "CH": 1843,
      "Ġable": 1844,
      "pri": 1845,
      "Ġarea": 1846,
      "ressed": 1847,
      "ĠCar": 1848,
      "Ġsat": 1849,
      "Ġhappy": 1850,
      "aser": 1851,
      "Ġparty": 1852,
      "ific": 1853,
      "Ġhurt": 1854,
      "Ġwants": 1855,
      "omba": 1856,
      "ivers": 1857,
      "oint": 1858,
      "Ġfight": 1859,
      "Ġdel": 1860,
      "ford": 1861,
      "ĠMay": 1862,
      "Ġdead": 1863,
      "rying": 1864,
      "oud": 1865,
      "Ġsong": 1866,
      "read": 1867,
      "used": 1868,
      "ury": 1869,
      "Ġprov": 1870,
      "min": 1871,
      "llo": 1872,
      "ized": 1873,
      "Ġoutside": 1874,
      "ĠCounty": 1875,
      "head": 1876,
      "selves": 1877,
      "Ġhappen": 1878,
      "ruary": 1879,
      "ebruary": 1880,
      "more": 1881,
      "iful": 1882,
      "Ġimport": 1883,
      "ral": 1884,
      "olly": 1885,
      "Ġbehind": 1886,
      "Ġless": 1887,
      "Ġlady": 1888,
      "Ġcolor": 1889,
      "fully": 1890,
      "son": 1891,
      "After": 1892,
      "Ġlad": 1893,
      "Ġfelt": 1894,
      "Ġtele": 1895,
      "Ġmain": 1896,
      "Ġgiven": 1897,
      "Ġtaking": 1898,
      "Ġbusiness": 1899,
      "ouble": 1900,
      "Ġoffic": 1901,
      "ik": 1902,
      "Ġcase": 1903,
      "Ġes": 1904,
      "Ġcir": 1905,
      "lish": 1906,
      "20": 1907,
      "Ġhuh": 1908,
      "dle": 1909,
      "Ġoften": 1910,
      "ider": 1911,
      "Ġ9": 1912,
      "Ġed": 1913,
      "Ġmine": 1914,
      "Ġline": 1915,
      "oes": 1916,
      "Ġminutes": 1917,
      "ole": 1918,
      "Ġfro": 1919,
      "Ġrecord": 1920,
      "ipp": 1921,
      "Ġlear": 1922,
      "Ġserv": 1923,
      "Ġdeal": 1924,
      "Ġtre": 1925,
      "anger": 1926,
      "Ġsister": 1927,
      "ĠBen": 1928,
      "RO": 1929,
      "ara": 1930,
      "Ġguys": 1931,
      "ĠDaddy": 1932,
      "essie": 1933,
      "Ġanimals": 1934,
      "Ġfunny": 1935,
      "Ġquestion": 1936,
      "for": 1937,
      "Ġgreen": 1938,
      "Ġaren": 1939,
      "ĠFebruary": 1940,
      "ada": 1941,
      "Ġlate": 1942,
      "IT": 1943,
      "unk": 1944,
      "Ġchange": 1945,
      "Here": 1946,
      "Ġocc": 1947,
      "ert": 1948,
      "Ġbear": 1949,
      "Ġ196": 1950,
      "To": 1951,
      "Ġwrite": 1952,
      "rence": 1953,
      "Some": 1954,
      "reet": 1955,
      "ĠJapan": 1956,
      "avid": 1957,
      "Ġtoys": 1958,
      "ander": 1959,
      "ĠSp": 1960,
      "LD": 1961,
      "Ġpresent": 1962,
      "ĠAd": 1963,
      "An": 1964,
      "bye": 1965,
      "gin": 1966,
      "Ġtill": 1967,
      "Ġev": 1968,
      "Ġmess": 1969,
      "Ġpicture": 1970,
      "ĠAnd": 1971,
      "shall": 1972,
      "Ġem": 1973,
      "Ġleast": 1974,
      "ĠĠĠĠĠĠĠĠĠĠĠĠĠĠĠĠ": 1975,
      "Ġeither": 1976,
      "fl": 1977,
      "lean": 1978,
      "Go": 1979,
      "ffe": 1980,
      "AS": 1981,
      "ze": 1982,
      "Ġclear": 1983,
      "bb": 1984,
      "gan": 1985,
      "artment": 1986,
      "because": 1987,
      "hil": 1988,
      "gie": 1989,
      "anu": 1990,
      "Ġmed": 1991,
      "ides": 1992,
      "amed": 1993,
      "Ġvis": 1994,
      "bs": 1995,
      "Ġbase": 1996,
      "fort": 1997,
      "Ġcouldn": 1998,
      "Ġpiece": 1999,
      "illy": 2000,
      "lly": 2001,
      "Ġcold": 2002,
      "Ã¡": 2003,
      "ards": 2004,
      "bl": 2005,
      "ĠYork": 2006,
      "aughter": 2007,
      "uly": 2008,
      "ality": 2009,
      "Ġclot": 2010,
      "ĠHar": 2011,
      "arent": 2012,
      "Ġbar": 2013,
      "een": 2014,
      "over": 2015,
      "Ġins": 2016,
      "ĠRe": 2017,
      "eng": 2018,
      "oops": 2019,
      "unch": 2020,
      "Ġlarge": 2021,
      "Ġpubl": 2022,
      "ians": 2023,
      "Ġfig": 2024,
      "ned": 2025,
      "Ġsomeone": 2026,
      "Ġpolit": 2027,
      "Ġroad": 2028,
      "Ġpri": 2029,
      "Ġago": 2030,
      "ring": 2031,
      "idge": 2032,
      "Ġrock": 2033,
      "Ġhum": 2034,
      "Ġguy": 2035,
      "Ġstrong": 2036,
      "Ġalone": 2037,
      "Ġcou": 2038,
      "zz": 2039,
      "Ġwife": 2040,
      "have": 2041,
      "Ġboat": 2042,
      "Ġgovern": 2043,
      "Ġwish": 2044,
      "alright": 2045,
      "Ġrepl": 2046,
      "ĠBe": 2047,
      "--------": 2048,
      "Ġherself": 2049,
      "Ġothers": 2050,
      "Ġsweet": 2051,
      "Ġwat": 2052,
      "Ġtom": 2053,
      "Ġmid": 2054,
      "Ġeng": 2055,
      "Ġtwenty": 2056,
      "Ġsometimes": 2057,
      "Ġbody": 2058,
      "aul": 2059,
      "Ġbirth": 2060,
      "ica": 2061,
      "iting": 2062,
      "ounc": 2063,
      "born": 2064,
      "II": 2065,
      "Ġtrue": 2066,
      "atur": 2067,
      "Ġhorse": 2068,
      "Ġimportant": 2069,
      "Ġground": 2070,
      "Ġreason": 2071,
      "Ġdark": 2072,
      "ead": 2073,
      "ming": 2074,
      "Ġinside": 2075,
      "Ġlisten": 2076,
      "ĠYOU": 2077,
      "Your": 2078,
      "Ġpower": 2079,
      "olog": 2080,
      "ĠQ": 2081,
      "Ġfore": 2082,
      "TER": 2083,
      "ement": 2084,
      "ety": 2085,
      "Ġdef": 2086,
      "aim": 2087,
      "eor": 2088,
      "Ġduck": 2089,
      "Ġbeautiful": 2090,
      "att": 2091,
      "Ġletter": 2092,
      "rie": 2093,
      "Ġbooks": 2094,
      "Ġfif": 2095,
      "lex": 2096,
      "icip": 2097,
      "Ġgets": 2098,
      "Ġdistrict": 2099,
      "Ġseven": 2100,
      "Ġopp": 2101,
      "Ġfing": 2102,
      "Ġmill": 2103,
      "ept": 2104,
      "ĠBart": 2105,
      "Ġcook": 2106,
      "Ġworking": 2107,
      "ĠTO": 2108,
      "Ġtrans": 2109,
      "Ġmark": 2110,
      "ator": 2111,
      "With": 2112,
      "oof": 2113,
      "anuary": 2114,
      "Ġty": 2115,
      "ousand": 2116,
      "ĠChar": 2117,
      "leanor": 2118,
      "Ġdinner": 2119,
      "Ġadv": 2120,
      "ey": 2121,
      "els": 2122,
      "ately": 2123,
      "ooh": 2124,
      "Ġwear": 2125,
      "aced": 2126,
      "000": 2127,
      "Erm": 2128,
      "iously": 2129,
      "Ġgun": 2130,
      "ists": 2131,
      "does": 2132,
      "Ġlay": 2133,
      "ĠTom": 2134,
      "icha": 2135,
      "Ġ10": 2136,
      "Get": 2137,
      "gy": 2138,
      "Ġtree": 2139,
      "ional": 2140,
      "men": 2141,
      "Ġlov": 2142,
      "Ġorder": 2143,
      "ney": 2144,
      "Ġfinished": 2145,
      "oub": 2146,
      "iding": 2147,
      "iving": 2148,
      "fic": 2149,
      "Ġfuck": 2150,
      "Ġrece": 2151,
      "Ġexam": 2152,
      "Ġpast": 2153,
      "Ġamong": 2154,
      "Ġtried": 2155,
      "Ġsum": 2156,
      "Ġ17": 2157,
      "Ġblock": 2158,
      "itch": 2159,
      "Ġart": 2160,
      "Ġcheck": 2161,
      "Ġ195": 2162,
      "Because": 2163,
      "cri": 2164,
      "ana": 2165,
      "rap": 2166,
      "aur": 2167,
      "ism": 2168,
      "Ġfair": 2169,
      "Ġpos": 2170,
      "Ġhon": 2171,
      "Ġclean": 2172,
      "Ġearly": 2173,
      "Ġacross": 2174,
      "Ġyellow": 2175,
      "angu": 2176,
      "ichael": 2177,
      "owing": 2178,
      "Ġsn": 2179,
      "Ġriver": 2180,
      "Ġdaddy": 2181,
      "Ġreac": 2182,
      "Ġglad": 2183,
      "AP": 2184,
      "Ġlived": 2185,
      "pril": 2186,
      "ken": 2187,
      "Ġjo": 2188,
      "teen": 2189,
      "ering": 2190,
      "Ġproblem": 2191,
      "Ġfish": 2192,
      "iver": 2193,
      "ained": 2194,
      "Ġprot": 2195,
      "Ġsun": 2196,
      "Ġchance": 2197,
      "gas": 2198,
      "cent": 2199,
      "ĠEnglish": 2200,
      "then": 2201,
      "erv": 2202,
      "ĠAs": 2203,
      "ature": 2204,
      "Ġran": 2205,
      "ED": 2206,
      "ĠJanuary": 2207,
      "ays": 2208,
      "Ġexpect": 2209,
      "ĠWill": 2210,
      "ham": 2211,
      "Ġfootball": 2212,
      "ĠPr": 2213,
      "ĠMag": 2214,
      "Ġattack": 2215,
      "Ġsitting": 2216,
      "Ġfree": 2217,
      "umb": 2218,
      "ĠBessie": 2219,
      "Ġnews": 2220,
      "col": 2221,
      "acher": 2222,
      "Ġclass": 2223,
      "Ġdat": 2224,
      "ices": 2225,
      "ots": 2226,
      "ovember": 2227,
      "Ġthousand": 2228,
      "Ġbuy": 2229,
      "Ġtouch": 2230,
      "Ġsever": 2231,
      "iam": 2232,
      "Ġbath": 2233,
      "ĠBl": 2234,
      "Ġwin": 2235,
      "owed": 2236,
      "ges": 2237,
      "raid": 2238,
      "ek": 2239,
      "AM": 2240,
      "alth": 2241,
      "Ġseems": 2242,
      "duc": 2243,
      "que": 2244,
      "Ġsilver": 2245,
      "Ġheld": 2246,
      "Ġfavor": 2247,
      "velop": 2248,
      "Ġknows": 2249,
      "Ġpar": 2250,
      "Ġlaw": 2251,
      "eared": 2252,
      "Ġbag": 2253,
      "Ġobject": 2254,
      "Ġkilled": 2255,
      "Ġphone": 2256,
      "Ġthinking": 2257,
      "Ġappro": 2258,
      "ract": 2259,
      "Ġseveral": 2260,
      "Ah": 2261,
      "LE": 2262,
      "Ġfast": 2263,
      "ution": 2264,
      "ulation": 2265,
      "ains": 2266,
      "Ġtakes": 2267,
      "Ġcup": 2268,
      "Ġcreat": 2269,
      "Ġseries": 2270,
      "ĠĠĊ": 2271,
      "Ġhit": 2272,
      "Ġresp": 2273,
      "che": 2274,
      "Ġvill": 2275,
      "Ġtea": 2276,
      "Ġroll": 2277,
      "Ġca": 2278,
      "arch": 2279,
      "ically": 2280,
      "vision": 2281,
      "when": 2282,
      "Ġnorth": 2283,
      "ls": 2284,
      "zy": 2285,
      "singing": 2286,
      "orld": 2287,
      "Ġmod": 2288,
      "iter": 2289,
      "ĠGerman": 2290,
      "ello": 2291,
      "ĠCon": 2292,
      "Ġgroup": 2293,
      "ium": 2294,
      "Ġpat": 2295,
      "Ġlangu": 2296,
      "ĠSte": 2297,
      "ĠLe": 2298,
      "Ġarm": 2299,
      "Ġ194": 2300,
      "Ġcompany": 2301,
      "Ġsurpr": 2302,
      "Ġ15": 2303,
      "ĠBrit": 2304,
      "Of": 2305,
      "ued": 2306,
      "Ġbra": 2307,
      "ilt": 2308,
      "ĠNovember": 2309,
      "two": 2310,
      "Ġsend": 2311,
      "ived": 2312,
      "Sh": 2313,
      "uro": 2314,
      "Ġ2021": 2315,
      "Ġpu": 2316,
      "Ġconst": 2317,
      "Ġblood": 2318,
      "amer": 2319,
      "ĠPro": 2320,
      "itten": 2321,
      "iversity": 2322,
      "Every": 2323,
      "Ġwall": 2324,
      "Ġtomorrow": 2325,
      "Ġ-": 2326,
      "rench": 2327,
      "Ġmilk": 2328,
      "Ġkiss": 2329,
      "Ġwood": 2330,
      "ĠOF": 2331,
      "Ġap": 2332,
      "Ġquiet": 2333,
      "ĠCan": 2334,
      "Ġ2020": 2335,
      "ĠKing": 2336,
      "itc": 2337,
      "Ġliving": 2338,
      "ding": 2339,
      "osp": 2340,
      "Ġcounty": 2341,
      "Ġkept": 2342,
      "gue": 2343,
      "ining": 2344,
      "ĠSc": 2345,
      "ĠBomba": 2346,
      "Ġafraid": 2347,
      "ya": 2348,
      "stem": 2349,
      "Ġya": 2350,
      "ility": 2351,
      "Ġyours": 2352,
      "though": 2353,
      "Ġsomebody": 2354,
      "Ġdress": 2355,
      "Ġtoy": 2356,
      "Ġlo": 2357,
      "nock": 2358,
      "Ġpoints": 2359,
      "Ġdaughter": 2360,
      "hello": 2361,
      "ĠBar": 2362,
      "Ġnine": 2363,
      "Ġbirthday": 2364,
      "ND": 2365,
      "ient": 2366,
      "Ġbab": 2367,
      "Ġrele": 2368,
      "ĠFrance": 2369,
      "Ġanswer": 2370,
      "Ġalright": 2371,
      "HAT": 2372,
      "Ġhist": 2373,
      "Ġreport": 2374,
      "Ġheav": 2375,
      "overed": 2376,
      "Ġce": 2377,
      "Ġsold": 2378,
      "Ġmot": 2379,
      "fess": 2380,
      "makes": 2381,
      "Ġusually": 2382,
      "ounds": 2383,
      "THE": 2384,
      "mon": 2385,
      "Ġperhaps": 2386,
      "âĢĶ": 2387,
      "Ġcharac": 2388,
      "Ġvocal": 2389,
      "Ġseat": 2390,
      "Ġtrouble": 2391,
      "band": 2392,
      "ĠPhil": 2393,
      "co": 2394,
      "Ġwithin": 2395,
      "ctober": 2396,
      "Ġmember": 2397,
      "Ġstep": 2398,
      "Ġrunning": 2399,
      "say": 2400,
      "Ġpot": 2401,
      "Ġsoft": 2402,
      "ĠGu": 2403,
      "ounter": 2404,
      "aint": 2405,
      "ĠWorld": 2406,
      "dden": 2407,
      "Ġda": 2408,
      "uhhuh": 2409,
      "Ġnose": 2410,
      "ler": 2411,
      "Ġcho": 2412,
      "Ġmonths": 2413,
      "Ġbecome": 2414,
      "gram": 2415,
      "ĠYeah": 2416,
      "Ġcamp": 2417,
      "Ġlovely": 2418,
      "Ġhours": 2419,
      "ajor": 2420,
      "Ex": 2421,
      "Fr": 2422,
      "Ġworked": 2423,
      "Ġfield": 2424,
      "Ġstood": 2425,
      "wered": 2426,
      "bed": 2427,
      "ping": 2428,
      "Ġcannot": 2429,
      "hard": 2430,
      "ĠGeor": 2431,
      "inning": 2432,
      "Ġain": 2433,
      "Ġfix": 2434,
      "Ġhur": 2435,
      "Ġstraight": 2436,
      "hel": 2437,
      "irt": 2438,
      "ĠOh": 2439,
      "Ste": 2440,
      "par": 2441,
      "Ġnamed": 2442,
      "ĠWar": 2443,
      "ai": 2444,
      "Ġsudden": 2445,
      "Ġcorn": 2446,
      "ggy": 2447,
      "Ġve": 2448,
      "urch": 2449,
      "Ġz": 2450,
      "Ġshop": 2451,
      ".'": 2452,
      "erc": 2453,
      "Ġbreat": 2454,
      "Ġmarried": 2455,
      "Ġwhether": 2456,
      "Please": 2457,
      "!âĢĿ": 2458,
      "Ġstar": 2459,
      "Ġwomen": 2460,
      "Ġla": 2461,
      "ration": 2462,
      "Ġsea": 2463,
      "Ġforward": 2464,
      "ĠJuly": 2465,
      "Ġcried": 2466,
      "Ġnin": 2467,
      "actly": 2468,
      "hanks": 2469,
      "Ġthemselves": 2470,
      "entle": 2471,
      "ray": 2472,
      "ĠX": 2473,
      "Ġcor": 2474,
      "Ġpartic": 2475,
      "Ġcray": 2476,
      "eptember": 2477,
      "Ġanswered": 2478,
      "Ġdream": 2479,
      "These": 2480,
      "OM": 2481,
      "ccess": 2482,
      "ked": 2483,
      "Ġlives": 2484,
      "ĠFraser": 2485,
      "ĠApril": 2486,
      "Ġtired": 2487,
      "Ġsuppose": 2488,
      "Ġcross": 2489,
      "ugust": 2490,
      "Ġpage": 2491,
      "Ġ16": 2492,
      "Ġspecial": 2493,
      "ging": 2494,
      "Ġdevelop": 2495,
      "ude": 2496,
      "Have": 2497,
      "ĠYes": 2498,
      "Ġhung": 2499,
      "Ġclothes": 2500,
      "ories": 2501,
      "Ġpassed": 2502,
      "Ġdepartment": 2503,
      "empt": 2504,
      "Her": 2505,
      "Ġjump": 2506,
      "Ġband": 2507,
      "ician": 2508,
      "ĠCol": 2509,
      "ĠOctober": 2510,
      "mother": 2511,
      "Ġlow": 2512,
      "Ġfit": 2513,
      "Ġeating": 2514,
      "sc": 2515,
      "ĠIN": 2516,
      "ĠSw": 2517,
      "Ġspec": 2518,
      "Ġton": 2519,
      "Ġpossible": 2520,
      "ouncil": 2521,
      "Ġcouple": 2522,
      "Ġfil": 2523,
      "Ġsystem": 2524,
      "lo": 2525,
      "ĠBob": 2526,
      "fer": 2527,
      "ĠJane": 2528,
      "Ġproper": 2529,
      "SIS": 2530,
      "com": 2531,
      "Ġill": 2532,
      "Ġdad": 2533,
      "which": 2534,
      "Ġeasy": 2535,
      "Ġring": 2536,
      "rat": 2537,
      "Ġah": 2538,
      "Ġpost": 2539,
      "stairs": 2540,
      "ĠDavid": 2541,
      "Ġfeeling": 2542,
      "Ġpleas": 2543,
      "Ġconc": 2544,
      "ondon": 2545,
      "uk": 2546,
      "Ġtelevision": 2547,
      "Ġdoctor": 2548,
      "Ġcommun": 2549,
      "tom": 2550,
      "ean": 2551,
      "Ġ193": 2552,
      "net": 2553,
      "Ġstation": 2554,
      "icks": 2555,
      "Ġdanger": 2556,
      "Ġfly": 2557,
      "oth": 2558,
      "ears": 2559,
      "Ġsand": 2560,
      "Ġnational": 2561,
      "ID": 2562,
      "Ġexper": 2563,
      "Ġ12": 2564,
      "Ch": 2565,
      "joy": 2566,
      "box": 2567,
      "Ġshar": 2568,
      "ĠNorth": 2569,
      "Ġclim": 2570,
      "Ġice": 2571,
      "Ġdoub": 2572,
      "Ġcontro": 2573,
      "hold": 2574,
      "Ġdiffic": 2575,
      "Ġpolic": 2576,
      "rigin": 2577,
      "gasps": 2578,
      "ĠSeptember": 2579,
      "Ġdest": 2580,
      "ĠMaggie": 2581,
      "some": 2582,
      "Ġarri": 2583,
      "Ġmillion": 2584,
      "ffect": 2585,
      "gar": 2586,
      "ĠAust": 2587,
      "Ġlikes": 2588,
      "Ġdie": 2589,
      "Ġleg": 2590,
      "itty": 2591,
      "Ġview": 2592,
      "ĠPe": 2593,
      "ĠMc": 2594,
      "ĠOr": 2595,
      "ogn": 2596,
      "Ġsounds": 2597,
      "ended": 2598,
      "play": 2599,
      "owers": 2600,
      "Ġcatch": 2601,
      "unicip": 2602,
      "By": 2603,
      "ris": 2604,
      "ĠJack": 2605,
      "Ġkids": 2606,
      "ager": 2607,
      "ÃŃ": 2608,
      "Ġneeds": 2609,
      "friend": 2610,
      "ĠMan": 2611,
      "la": 2612,
      "ĠCal": 2613,
      "Ġwindow": 2614,
      "Ġslow": 2615,
      "Maybe": 2616,
      "ox": 2617,
      "Ġdiv": 2618,
      "ĠPar": 2619,
      "Ġabs": 2620,
      "Ġreleased": 2621,
      "ored": 2622,
      "ances": 2623,
      "Ġgovernment": 2624,
      "Ġputting": 2625,
      "ST": 2626,
      "Ġcirc": 2627,
      "'.": 2628,
      "Ġtick": 2629,
      "babbles": 2630,
      "Ġstat": 2631,
      "Ġarms": 2632,
      "Ġwaiting": 2633,
      "Ġsupport": 2634,
      "Ġoper": 2635,
      "Ġlots": 2636,
      "Ġbroken": 2637,
      "oop": 2638,
      "Ġegg": 2639,
      "ĠAugust": 2640,
      "aptain": 2641,
      "Ġmoved": 2642,
      "Ġforget": 2643,
      "Ġsal": 2644,
      "Ġnoises": 2645,
      "Ġterri": 2646,
      "Ġfur": 2647,
      "ardon": 2648,
      "Ġvar": 2649,
      "your": 2650,
      "Ġhus": 2651,
      "Ġabove": 2652,
      "resent": 2653,
      "Ġoffice": 2654,
      ",--": 2655,
      "uri": 2656,
      "Ġknock": 2657,
      "emy": 2658,
      "Ġthrow": 2659,
      "Ġevent": 2660,
      "ĠSouth": 2661,
      "Ġmur": 2662,
      "Ġking": 2663,
      "Ġgentle": 2664,
      "noon": 2665,
      "Any": 2666,
      "Ġhang": 2667,
      "ĠCity": 2668,
      "ĠLondon": 2669,
      "Ġhowever": 2670,
      "Ġmiles": 2671,
      "Ġequ": 2672,
      "cember": 2673,
      "Ġputs": 2674,
      "cient": 2675,
      "Ġest": 2676,
      "Ġsuccess": 2677,
      "Ġseason": 2678,
      "oren": 2679,
      "ĠWe": 2680,
      "hile": 2681,
      "Ġrequ": 2682,
      "Ġorgan": 2683,
      "Ġchanged": 2684,
      "VE": 2685,
      "Ġeverybody": 2686,
      "Ġmommy": 2687,
      "sings": 2688,
      "urs": 2689,
      "Ġtelling": 2690,
      "aged": 2691,
      "Ġann": 2692,
      "Ġrecogn": 2693,
      "eal": 2694,
      "ĠIndian": 2695,
      "Ġtonight": 2696,
      "Wh": 2697,
      "Ġ*": 2698,
      "Ġwhom": 2699,
      "Ġpolice": 2700,
      "Ġtowards": 2701,
      "rop": 2702,
      "ĠĠĠĠĠĠ": 2703,
      "Ġ?": 2704,
      "Ġfa": 2705,
      "lete": 2706,
      "Ġeye": 2707,
      "Ġpig": 2708,
      "Ġmeant": 2709,
      "Ġforgot": 2710,
      "Ġju": 2711,
      "mas": 2712,
      "ĠPl": 2713,
      "Ġstanding": 2714,
      "Ġparticular": 2715,
      "fast": 2716,
      "Ġshot": 2717,
      "oose": 2718,
      "Ġeffect": 2719,
      "time": 2720,
      "con": 2721,
      "Ġstru": 2722,
      "Ġ...": 2723,
      "Ġgold": 2724,
      "ceed": 2725,
      "Ġwhatever": 2726,
      "mbers": 2727,
      "See": 2728,
      "Ġhors": 2729,
      "bit": 2730,
      "Ġmist": 2731,
      "omas": 2732,
      "terday": 2733,
      "Ġnor": 2734,
      "phone": 2735,
      "Ġreturned": 2736,
      "Ġexcl": 2737,
      "Ġperfect": 2738,
      "Ġenjoy": 2739,
      "itchen": 2740,
      "AL": 2741,
      "Ġcaught": 2742,
      "ror": 2743,
      "wow": 2744,
      "Ġluck": 2745,
      "Ġwritten": 2746,
      "Ġworry": 2747,
      "ffee": 2748,
      "]!": 2749,
      "reed": 2750,
      "Ġmunicip": 2751,
      "amb": 2752,
      "ĠDon": 2753,
      "Ġcow": 2754,
      "Ġinform": 2755,
      "iron": 2756,
      "was": 2757,
      "Ġpopulation": 2758,
      "Ġformer": 2759,
      "Ġcos": 2760,
      "ĠTr": 2761,
      "ĠFrench": 2762,
      "ĠMarch": 2763,
      "Ġvocalises": 2764,
      "Ġcop": 2765,
      "Ġcry": 2766,
      "ior": 2767,
      "ĠEuro": 2768,
      "counter": 2769,
      "ĠJune": 2770,
      "From": 2771,
      "dd": 2772,
      "Ġorigin": 2773,
      "Ġafternoon": 2774,
      "ĠUniversity": 2775,
      "Ġprogram": 2776,
      "rupt": 2777,
      "Ġesc": 2778,
      "Ġbur": 2779,
      "Ġboard": 2780,
      "Ġpract": 2781,
      "ggest": 2782,
      "ron": 2783,
      "Ġtest": 2784,
      "Ġsight": 2785,
      "Ġinde": 2786,
      "CHILD": 2787,
      "Ġdirect": 2788,
      "GH": 2789,
      "Ġsick": 2790,
      "Ġcal": 2791,
      "Ġdet": 2792,
      "Ġdisapp": 2793,
      "ground": 2794,
      "ency": 2795,
      "Ġlanguage": 2796,
      "Ġpen": 2797,
      "Ġfill": 2798,
      "ament": 2799,
      "Ġkitchen": 2800,
      "Ġclos": 2801,
      "Ġ2018": 2802,
      "Ġhusband": 2803,
      "Ġmad": 2804,
      "Ġcareful": 2805,
      "Ġfellow": 2806,
      "ĠDecember": 2807,
      "ience": 2808,
      "Ġanyway": 2809,
      "cially": 2810,
      "Ġmis": 2811,
      "Ġfear": 2812,
      "ĠAll": 2813,
      "Ġfrog": 2814,
      "would": 2815,
      "Ġcool": 2816,
      "Ġtruck": 2817,
      "Ġtoward": 2818,
      "Ġjack": 2819,
      "Ġchildes": 2820,
      "CHILDES": 2821,
      "Ġsad": 2822,
      "Ġsuggest": 2823,
      "Ġturns": 2824,
      "aimed": 2825,
      "Ġahead": 2826,
      "ula": 2827,
      "ising": 2828,
      "Ġlonger": 2829,
      "Or": 2830,
      "Ġ11": 2831,
      "ĠJoe": 2832,
      "Ġsecret": 2833,
      "din": 2834,
      "lie": 2835,
      "pes": 2836,
      "Ġcost": 2837,
      "Ġhop": 2838,
      "Ġbuilding": 2839,
      "OW": 2840,
      "Ġought": 2841,
      "omp": 2842,
      "ĠComm": 2843,
      "arden": 2844,
      "give": 2845,
      "Ġdeep": 2846,
      "Ġnearly": 2847,
      "Ġposition": 2848,
      "Hello": 2849,
      "Ġisland": 2850,
      "Ġship": 2851,
      "king": 2852,
      "va": 2853,
      "Daddy": 2854,
      "Ġcover": 2855,
      "ĠSo": 2856,
      "ips": 2857,
      "ĠBritish": 2858,
      "Ġcharacter": 2859,
      "Ġevening": 2860,
      "Ġfollowing": 2861,
      "ĠWest": 2862,
      "Ġbroke": 2863,
      "view": 2864,
      "Ġshoes": 2865,
      "Ġfarm": 2866,
      "Ġreplied": 2867,
      "Ġfort": 2868,
      "Ġmembers": 2869,
      "Ġdrive": 2870,
      "Ġshut": 2871,
      "yl": 2872,
      "rill": 2873,
      "Ġride": 2874,
      "Ġsafe": 2875,
      "Ġvisit": 2876,
      "reek": 2877,
      "Ġregion": 2878,
      "Ġav": 2879,
      "iff": 2880,
      "Ġfigure": 2881,
      "Ġsnow": 2882,
      "Ġpublic": 2883,
      "Ġexactly": 2884,
      "Ġquickly": 2885,
      "len": 2886,
      "Ġdem": 2887,
      "Ġvillage": 2888,
      "bur": 2889,
      "Ġcommon": 2890,
      "IC": 2891,
      "whis": 2892,
      "baby": 2893,
      "Ġhappens": 2894,
      "Ġtot": 2895,
      "ĠMommy": 2896,
      "Ġspend": 2897,
      "ighb": 2898,
      "Ġthirty": 2899,
      "Ġwild": 2900,
      "Ġworth": 2901,
      "Ġparent": 2902,
      "Ġwrote": 2903,
      "Ġsave": 2904,
      "uation": 2905,
      "ino": 2906,
      "ott": 2907,
      "ĠMe": 2908,
      "ĠShe": 2909,
      "Ġ2019": 2910,
      "ĠRep": 2911,
      "uthor": 2912,
      "ege": 2913,
      "sit": 2914,
      "Ġanyone": 2915,
      "ĠNational": 2916,
      "Ġru": 2917,
      "ffic": 2918,
      "Ġpress": 2919,
      "Ġinstead": 2920,
      "ĠGrand": 2921,
      "Ġprotect": 2922,
      "Ġdecided": 2923,
      "Ġcurrent": 2924,
      "gest": 2925,
      "idence": 2926,
      "ums": 2927,
      "Ġmiddle": 2928,
      "ospital": 2929,
      "rit": 2930,
      "Ġcast": 2931,
      "ĠPat": 2932,
      "ĠTe": 2933,
      "Ġinterested": 2934,
      "estern": 2935,
      "with": 2936,
      "Ġtem": 2937,
      "iny": 2938,
      "Ġban": 2939,
      "acy": 2940,
      "ĠSh": 2941,
      "ĠGo": 2942,
      "ET": 2943,
      "iling": 2944,
      "Ġprop": 2945,
      "Ġtape": 2946,
      "Ġmount": 2947,
      "please": 2948,
      "resident": 2949,
      "oseph": 2950,
      "Ġexcept": 2951,
      "iod": 2952,
      "Ġsus": 2953,
      "Ġpieces": 2954,
      "Ġmeeting": 2955,
      "Ġplaces": 2956,
      "Ġbuilt": 2957,
      "ĠEngland": 2958,
      "Ġtow": 2959,
      "Ġservice": 2960,
      "bert": 2961,
      "ĠEdna": 2962,
      "ĠAunt": 2963,
      "Ġsupposed": 2964,
      "note": 2965,
      "Ġhell": 2966,
      "Ġyesterday": 2967,
      "Ġgiving": 2968,
      "Ġdoubt": 2969,
      "cuse": 2970,
      "Ġlearn": 2971,
      "Eleanor": 2972,
      "Ġtreat": 2973,
      "Ġprodu": 2974,
      "ĠAdam": 2975,
      "Ġusing": 2976,
      "Ġcommune": 2977,
      "Ġsilence": 2978,
      "Ġsuper": 2979,
      "Ġcarry": 2980,
      "orence": 2981,
      "Ġcamer": 2982,
      "Ġstri": 2983,
      "Ġtrust": 2984,
      "tered": 2985,
      "Ġcomplete": 2986,
      "Ġfollowed": 2987,
      "APTER": 2988,
      "Ġbes": 2989,
      "ĠMin": 2990,
      "Foot": 2991,
      "irty": 2992,
      "will": 2993,
      "Ġgames": 2994,
      "attle": 2995,
      "ushed": 2996,
      "ĠPaul": 2997,
      "olute": 2998,
      "Ġiss": 2999,
      "Ġburn": 3000,
      "ti": 3001,
      "Ġdam": 3002,
      "Ġheavy": 3003,
      "ishing": 3004,
      "maybe": 3005,
      "Ġreached": 3006,
      "Ġbow": 3007,
      "itted": 3008,
      "Ġopened": 3009,
      "Ġbas": 3010,
      "Ġ14": 3011,
      "Ġfavorite": 3012,
      "Ġ!": 3013,
      "Ġfail": 3014,
      "Ġlie": 3015,
      "Ġang": 3016,
      "Ġrad": 3017,
      "eally": 3018,
      "Ġperform": 3019,
      "work": 3020,
      "AD": 3021,
      "Ġcoffee": 3022,
      "rs": 3023,
      "Ġstuck": 3024,
      "iled": 3025,
      "Ġappear": 3026,
      "Ġclub": 3027,
      "Ġcertainly": 3028,
      "Ġdi": 3029,
      "Ġval": 3030,
      "icken": 3031,
      "CHAPTER": 3032,
      "Ġgrow": 3033,
      "aves": 3034,
      "isc": 3035,
      "Ġwhose": 3036,
      "Ġlegs": 3037,
      "Ġstopped": 3038,
      "bout": 3039,
      "Ġbelong": 3040,
      "Ġ2022": 3041,
      "sp": 3042,
      "isten": 3043,
      "Ġpretend": 3044,
      "Will": 3045,
      "oul": 3046,
      "Ġled": 3047,
      "ĠEurope": 3048,
      "Ġindeed": 3049,
      "Un": 3050,
      "erry": 3051,
      "Ġstore": 3052,
      "Ġteacher": 3053,
      "AND": 3054,
      "Ġthird": 3055,
      "Ġproduc": 3056,
      "Ġquar": 3057,
      "Mar": 3058,
      "Ġprofess": 3059,
      "Ġfinish": 3060,
      "Mommy": 3061,
      "Ġgeneral": 3062,
      "ĠMichael": 3063,
      "Ġresult": 3064,
      "AY": 3065,
      "rem": 3066,
      "ĠDo": 3067,
      "Ġcomfort": 3068,
      "Ġconsider": 3069,
      "John": 3070,
      "arty": 3071,
      "ode": 3072,
      "ird": 3073,
      "Ġstreet": 3074,
      "ified": 3075,
      "Ġsingle": 3076,
      "Ġmatch": 3077,
      "Ġmajor": 3078,
      "Ġpack": 3079,
      "ĠSir": 3080,
      "Gr": 3081,
      "Per": 3082,
      "Ġlevel": 3083,
      "Ġpresident": 3084,
      "Ġbreakfast": 3085,
      "Ġcause": 3086,
      "Ġlocal": 3087,
      "ĠDan": 3088,
      "Ġleaving": 3089,
      "Ġwhis": 3090,
      "ĠFrank": 3091,
      "Ġbought": 3092,
      "Ġshout": 3093,
      "Ġsomewhere": 3094,
      "Ġswim": 3095,
      "Ġaccount": 3096,
      "Ġreceived": 3097,
      "Ġlunch": 3098,
      "ĠPol": 3099,
      "Ġ13": 3100,
      "eder": 3101,
      "OK": 3102,
      "iles": 3103,
      "Ġwatches": 3104,
      "Ġneck": 3105,
      "Ġholds": 3106,
      "onel": 3107,
      "ille": 3108,
      "mpions": 3109,
      "Ġworks": 3110,
      "Ġweeks": 3111,
      "Ġletters": 3112,
      "Ġremark": 3113,
      "Ġbutter": 3114,
      "ternational": 3115,
      "Ġanimal": 3116,
      "lexander": 3117,
      "Ġadm": 3118,
      "Ġstrange": 3119,
      "Footnote": 3120,
      "Ġcrayon": 3121,
      "Ġdifficult": 3122,
      "off": 3123,
      "Ġsense": 3124,
      "itz": 3125,
      "ribut": 3126,
      "Ġdecl": 3127,
      "igg": 3128,
      "Ġexample": 3129,
      "unny": 3130,
      "phan": 3131,
      "ĠRic": 3132,
      "10": 3133,
      "UT": 3134,
      "Ġmaster": 3135,
      "Ġmention": 3136,
      "Ġpark": 3137,
      "Ġhol": 3138,
      "ĠBrad": 3139,
      "wait": 3140,
      "Ġcareer": 3141,
      "ĠRos": 3142,
      "INV": 3143,
      "Ġwarm": 3144,
      "Ġut": 3145,
      "Ġrain": 3146,
      "Ġjuice": 3147,
      "ift": 3148,
      "Ġperiod": 3149,
      "Ġaccept": 3150,
      "lect": 3151,
      "Ġdefe": 3152,
      "iday": 3153,
      "Ġsol": 3154,
      "Ġmonkey": 3155,
      "aff": 3156,
      "Ġcamera": 3157,
      "Ġmunicipality": 3158,
      "Ġreach": 3159,
      "Ġcompan": 3160,
      "NA": 3161,
      "Ġexpress": 3162,
      "Ġhuman": 3163,
      "Even": 3164,
      "ills": 3165,
      "Ġbottom": 3166,
      "Tell": 3167,
      "Ġmoving": 3168,
      "Ġpolitician": 3169,
      "Ġcre": 3170,
      "Ġcrying": 3171,
      "ancy": 3172,
      "Ġdescri": 3173,
      "Ġbull": 3174,
      "Ġlim": 3175,
      "Ġappeared": 3176,
      "nel": 3177,
      "Ġbright": 3178,
      "ĠCaptain": 3179,
      "Ġsuddenly": 3180,
      "iforn": 3181,
      "yn": 3182,
      "Ġpush": 3183,
      "Ġemp": 3184,
      "pecially": 3185,
      "ĠLea": 3186,
      "ization": 3187,
      "ĠGood": 3188,
      "Ġalthough": 3189,
      "Ġhistory": 3190,
      "Ġhospital": 3191,
      "acing": 3192,
      "Sorry": 3193,
      "ĠAND": 3194,
      "cket": 3195,
      "Ġalb": 3196,
      "Ġspoke": 3197,
      "Ġincluding": 3198,
      "Ġcrazy": 3199,
      "ĠEl": 3200,
      "Ġleaves": 3201,
      "has": 3202,
      "Ġdev": 3203,
      "Ġcarried": 3204,
      "Ġkick": 3205,
      "Ġfinger": 3206,
      "Ġelect": 3207,
      "Ġauthor": 3208,
      "Ġvide": 3209,
      "Ġlab": 3210,
      "ida": 3211,
      "ording": 3212,
      "Ġprison": 3213,
      "Ġtype": 3214,
      "Ġblow": 3215,
      "take": 3216,
      "Ġmam": 3217,
      "Ġloc": 3218,
      "Ġhig": 3219,
      "Ġdesign": 3220,
      "Ġengine": 3221,
      "Ġlift": 3222,
      "Ġtruth": 3223,
      "Ġeveryone": 3224,
      "Ġfifty": 3225,
      "ifornia": 3226,
      "....": 3227,
      "roy": 3228,
      "ilar": 3229,
      "Ġallowed": 3230,
      "ograp": 3231,
      "Ġcompet": 3232,
      "Ġfurther": 3233,
      "Ar": 3234,
      "ev": 3235,
      "Like": 3236,
      "Ġcand": 3237,
      "Thanks": 3238,
      "ĠChi": 3239,
      "ĠJim": 3240,
      "nes": 3241,
      "Ġ]": 3242,
      "Ġwatching": 3243,
      "Cl": 3244,
      "_,": 3245,
      "orts": 3246,
      "ensus": 3247,
      "Ġsummer": 3248,
      "Pe": 3249,
      "gu": 3250,
      "ĠMama": 3251,
      "ppy": 3252,
      "Ġglass": 3253,
      "Ġvol": 3254,
      "Ġanymore": 3255,
      "Ġprin": 3256,
      "Ġincre": 3257,
      "Ġbased": 3258,
      "ils": 3259,
      "ĠHow": 3260,
      "Ġpap": 3261,
      "Ġrub": 3262,
      "However": 3263,
      "ĠIT": 3264,
      "Ġbank": 3265,
      "Ġcab": 3266,
      "ĠWh": 3267,
      "Ġhasn": 3268,
      "Take": 3269,
      "mo": 3270,
      "Ġcake": 3271,
      "ales": 3272,
      "Ġbread": 3273,
      "Ġhungry": 3274,
      "Ġhoney": 3275,
      "Ġimag": 3276,
      "Ġnecess": 3277,
      "Wait": 3278,
      "asket": 3279,
      "eh": 3280,
      "ora": 3281,
      "Ġnorm": 3282,
      "ously": 3283,
      "Ġ30": 3284,
      "rief": 3285,
      "ĠGeorge": 3286,
      "ĠCent": 3287,
      "Ġslight": 3288,
      "Ġbusy": 3289,
      "ĠCalifornia": 3290,
      "Somet": 3291,
      "Ġanybody": 3292,
      "Ġlaughs": 3293,
      ",'": 3294,
      "Ġvi": 3295,
      "18": 3296,
      "bers": 3297,
      "Ġkn": 3298,
      "Ġspot": 3299,
      "Ġspir": 3300,
      "Ġwand": 3301,
      "Ġneighb": 3302,
      "Ġsilly": 3303,
      "Ġgen": 3304,
      "Ġcond": 3305,
      "Ġhealth": 3306,
      "ission": 3307,
      "ĠGreat": 3308,
      "Ġbrown": 3309,
      "Ġexclaimed": 3310,
      "BRO": 3311,
      "Ġadded": 3312,
      "Ġsouth": 3313,
      "ourn": 3314,
      "ĠPresident": 3315,
      "Ġattention": 3316,
      "ï¿½ï¿½ï¿½ï¿½": 3317,
      "ĠFlorence": 3318,
      "Ġbreath": 3319,
      "light": 3320,
      "tell": 3321,
      "Ġbud": 3322,
      "eddy": 3323,
      "Ġgall": 3324,
      "ĠAm": 3325,
      "Ġaccident": 3326,
      "Ġinvol": 3327,
      "Ġitself": 3328,
      "Ġhorses": 3329,
      "Ġnames": 3330,
      "Hi": 3331,
      "Ġdry": 3332,
      "Ġgas": 3333,
      "Ġgarden": 3334,
      "Ġcapital": 3335,
      "ĠAf": 3336,
      "ĠDr": 3337,
      "aug": 3338,
      "ĠThat": 3339,
      "ĠItal": 3340,
      "oman": 3341,
      "Ġself": 3342,
      "Ġtrees": 3343,
      "ĠAmerica": 3344,
      "vol": 3345,
      "Ġver": 3346,
      "Ġtast": 3347,
      "Ġknight": 3348,
      "ĠSe": 3349,
      "Ġdistance": 3350,
      "ĠChristmas": 3351,
      "Ġcorner": 3352,
      "uts": 3353,
      "Ġsell": 3354,
      "ĠRuss": 3355,
      "rel": 3356,
      "Ġdance": 3357,
      "ashing": 3358,
      "iced": 3359,
      "Ġcompl": 3360,
      "Ġvict": 3361,
      "Ġparents": 3362,
      "\")": 3363,
      "Ġplayer": 3364,
      "want": 3365,
      "Ġ192": 3366,
      "Ġbeginning": 3367,
      "Ġdelight": 3368,
      "house": 3369,
      "Ġpause": 3370,
      "Ġlock": 3371,
      "Ġliked": 3372,
      "astic": 3373,
      "Mrs": 3374,
      "Ġwriting": 3375,
      "----------------": 3376,
      "ĠThomas": 3377,
      "Ġwash": 3378,
      "Ġcapt": 3379,
      "Ġsubject": 3380,
      "Ġcollect": 3381,
      "Really": 3382,
      "Ġcontinued": 3383,
      "ĠAustral": 3384,
      "wanna": 3385,
      "Ġshouldn": 3386,
      "Ġeduc": 3387,
      "Steven": 3388,
      "Ġwet": 3389,
      "itive": 3390,
      "Ġshowed": 3391,
      "Ġattempt": 3392,
      "AC": 3393,
      "ston": 3394,
      "Ġtail": 3395,
      "Ġhall": 3396,
      "ĠSha": 3397,
      "Ġholding": 3398,
      "Ġpuzz": 3399,
      "Ġbird": 3400,
      "Ġdropped": 3401,
      "val": 3402,
      "Ġsmell": 3403,
      "Ġrespect": 3404,
      "board": 3405,
      "Ġquestions": 3406,
      "Ġ$": 3407,
      "Ġfut": 3408,
      "elve": 3409,
      "Ġspace": 3410,
      "wood": 3411,
      "Ġnatur": 3412,
      "lt": 3413,
      "por": 3414,
      "Ġsex": 3415,
      "Ġsituation": 3416,
      "Ġbabies": 3417,
      "Two": 3418,
      "ply": 3419,
      "ases": 3420,
      "EL": 3421,
      "ĠâĢĻ": 3422,
      "haha": 3423,
      "ume": 3424,
      "Ġtrack": 3425,
      "Ġrepresent": 3426,
      "Ġloved": 3427,
      "Ġfucking": 3428,
      "ades": 3429,
      "ference": 3430,
      "Ġbeat": 3431,
      "gged": 3432,
      "Ġchief": 3433,
      "IR": 3434,
      "ki": 3435,
      "viously": 3436,
      "Ġmat": 3437,
      "cries": 3438,
      "mommy": 3439,
      "Ã³": 3440,
      "Ġearth": 3441,
      "Ġwalking": 3442,
      "down": 3443,
      "ky": 3444,
      "yep": 3445,
      "Ġchurch": 3446,
      "Ġhole": 3447,
      "ument": 3448,
      "Ġcontrol": 3449,
      "Ġ25": 3450,
      "Ġtor": 3451,
      "Ġhous": 3452,
      "ĠHouse": 3453,
      "ĠWilliam": 3454,
      "Ġfres": 3455,
      "ĠMa": 3456,
      "Ġ(\"": 3457,
      "Ġfeed": 3458,
      "ength": 3459,
      "ires": 3460,
      "sey": 3461,
      "Ġblocks": 3462,
      "ĠRoy": 3463,
      "ĠRiver": 3464,
      "ancing": 3465,
      "Ġcommand": 3466,
      "of": 3467,
      "ĠMal": 3468,
      "ran": 3469,
      "iger": 3470,
      "clock": 3471,
      "Ġweren": 3472,
      "Ġslowly": 3473,
      "Ġlose": 3474,
      "Ġhast": 3475,
      "Ġnone": 3476,
      "ĠFor": 3477,
      "uhoh": 3478,
      "three": 3479,
      "De": 3480,
      "ien": 3481,
      "Ġport": 3482,
      "omes": 3483,
      "ĠAb": 3484,
      "Ġarr": 3485,
      "Stop": 3486,
      "Ġrul": 3487,
      "Ġrole": 3488,
      "Ġproblems": 3489,
      ".--": 3490,
      "17": 3491,
      "ili": 3492,
      "aps": 3493,
      "gon": 3494,
      "ĠSec": 3495,
      "ĠHall": 3496,
      "Ġseeing": 3497,
      "Ġcharge": 3498,
      "Mom": 3499,
      "cell": 3500,
      "Ġrid": 3501,
      "aker": 3502,
      "Ġcrow": 3503,
      "hood": 3504,
      "Ġdollars": 3505,
      "olutely": 3506,
      "Ġeff": 3507,
      "Ġfingers": 3508,
      "Ġcream": 3509,
      "Ġhey": 3510,
      "isted": 3511,
      "pardon": 3512,
      "esus": 3513,
      "Ġgar": 3514,
      "Ġteeth": 3515,
      "ounced": 3516,
      "Ġinteresting": 3517,
      "Ġfuture": 3518,
      "Would": 3519,
      "ination": 3520,
      "Its": 3521,
      "Ġactiv": 3522,
      "da": 3523,
      "Ġmach": 3524,
      "Ġpaid": 3525,
      "Ġanx": 3526,
      "Ġforce": 3527,
      "Ġentire": 3528,
      "Ġsimilar": 3529,
      "yond": 3530,
      "Ġbene": 3531,
      "Ġmem": 3532,
      "cious": 3533,
      "Ġregard": 3534,
      "Ġdrop": 3535,
      "ĠâĢĺ": 3536,
      "inite": 3537,
      "...?": 3538,
      "Ġstarts": 3539,
      "Ġpriv": 3540,
      "lin": 3541,
      "lymp": 3542,
      "ĠSm": 3543,
      "Ġjud": 3544,
      "ĠLo": 3545,
      "Ġinformation": 3546,
      "west": 3547,
      "ĠJoseph": 3548,
      "Ġlaughing": 3549,
      "under": 3550,
      "rer": 3551,
      "Ġshoot": 3552,
      "Ġcomb": 3553,
      "Ġvideo": 3554,
      "know": 3555,
      "Ġloud": 3556,
      "ĠIre": 3557,
      "riage": 3558,
      "atives": 3559,
      "hips": 3560,
      "Ġbottle": 3561,
      "Ġwide": 3562,
      "Ġmovies": 3563,
      "Ġneeded": 3564,
      "Ġshare": 3565,
      "Ġhate": 3566,
      "Miss": 3567,
      "iant": 3568,
      "sy": 3569,
      "Ġpal": 3570,
      "Ġgives": 3571,
      "Ġhost": 3572,
      "illa": 3573,
      "cture": 3574,
      "pret": 3575,
      "Ġwalked": 3576,
      "chan": 3577,
      "round": 3578,
      "Me": 3579,
      "aud": 3580,
      "Ġolder": 3581,
      "Ġshows": 3582,
      "Ġserious": 3583,
      "Ġreading": 3584,
      "EC": 3585,
      "watch": 3586,
      "het": 3587,
      "ĠPeter": 3588,
      "ĠIsland": 3589,
      "Ġdirection": 3590,
      "Ġextra": 3591,
      "Sp": 3592,
      "Ġlying": 3593,
      "ĠMad": 3594,
      "aret": 3595,
      "Ġshit": 3596,
      "cks": 3597,
      "ĠUS": 3598,
      "Ġeast": 3599,
      "Ġconcern": 3600,
      "ALL": 3601,
      "face": 3602,
      "uty": 3603,
      "ĠMom": 3604,
      "ĠJames": 3605,
      "pered": 3606,
      "Pro": 3607,
      "Ġtall": 3608,
      "Ġterm": 3609,
      "iers": 3610,
      "ggie": 3611,
      "Ġcreated": 3612,
      "dom": 3613,
      "Ġsepar": 3614,
      "icro": 3615,
      "ala": 3616,
      "Ġ24": 3617,
      "Ġproject": 3618,
      "ploy": 3619,
      "ĠUncle": 3620,
      "Ġwonderful": 3621,
      "anton": 3622,
      "ĠLuc": 3623,
      "soci": 3624,
      "ption": 3625,
      "Ġscar": 3626,
      "Re": 3627,
      "Ġbang": 3628,
      "Ġlength": 3629,
      "ipe": 3630,
      "ĠCup": 3631,
      "Ġhandle": 3632,
      "Ġcars": 3633,
      "su": 3634,
      "isy": 3635,
      "Ġgoin": 3636,
      "ĠOlymp": 3637,
      "Ġplays": 3638,
      "Ġbridge": 3639,
      "Ġ2010": 3640,
      "Ġpicked": 3641,
      "Ġalbum": 3642,
      "Ġvers": 3643,
      "Ġmass": 3644,
      "ads": 3645,
      "Ġpopular": 3646,
      ".âĢĻ": 3647,
      "Car": 3648,
      "stop": 3649,
      "exas": 3650,
      "set": 3651,
      "Ġhide": 3652,
      "Ġep": 3653,
      "Ġwel": 3654,
      "Ġflowers": 3655,
      "Ġpictures": 3656,
      "Ġoccas": 3657,
      "ĠIndia": 3658,
      "raft": 3659,
      "Ġconvers": 3660,
      "Ġaut": 3661,
      "ites": 3662,
      "Ġcard": 3663,
      "istory": 3664,
      "Ġ21": 3665,
      "IGH": 3666,
      "Ġinfl": 3667,
      "Ġarmy": 3668,
      "Ġpers": 3669,
      "rian": 3670,
      "Listen": 3671,
      "Ġdue": 3672,
      "Ġorange": 3673,
      "Ġsinging": 3674,
      "Give": 3675,
      "ka": 3676,
      "Ġcensus": 3677,
      "elly": 3678,
      "Bl": 3679,
      "Ġuncle": 3680,
      "ĠMon": 3681,
      "Ġcircle": 3682,
      "Ġspecies": 3683,
      "Ġeggs": 3684,
      "ba": 3685,
      "Ġcomput": 3686,
      "Ġpicks": 3687,
      "Ġdrawing": 3688,
      "erve": 3689,
      "Ġhy": 3690,
      "Ġamount": 3691,
      "Ġremain": 3692,
      "uge": 3693,
      "itions": 3694,
      "Ġrepe": 3695,
      "irm": 3696,
      "anced": 3697,
      "Ġterrible": 3698,
      "Ġwag": 3699,
      "itary": 3700,
      "ĠMary": 3701,
      "ĠST": 3702,
      "ĠEve": 3703,
      "wr": 3704,
      "ession": 3705,
      "ĠState": 3706,
      "Ġtalked": 3707,
      "Ġinvest": 3708,
      "Ġcentury": 3709,
      "turn": 3710,
      "Ġfat": 3711,
      "Nothing": 3712,
      "Ġdiscuss": 3713,
      "ĠSund": 3714,
      "ĠHer": 3715,
      "Ġspell": 3716,
      "Ġsmile": 3717,
      "Ġclimb": 3718,
      "Ġ23": 3719,
      "Ġespecially": 3720,
      "kin": 3721,
      "ĠMex": 3722,
      "Ġparts": 3723,
      "Ġactor": 3724,
      "ography": 3725,
      "Qu": 3726,
      "cher": 3727,
      "kiss": 3728,
      "oming": 3729,
      "Ġears": 3730,
      "ĠAg": 3731,
      "ella": 3732,
      "ĠNor": 3733,
      "Ġgrass": 3734,
      "Ġtowel": 3735,
      "Ġspent": 3736,
      "Ġbigger": 3737,
      "aven": 3738,
      "roll": 3739,
      "ĠLou": 3740,
      "ĠON": 3741,
      "hys": 3742,
      "za": 3743,
      "ato": 3744,
      "pping": 3745,
      "Ġprep": 3746,
      "Ġinterrupt": 3747,
      "aturday": 3748,
      "Ġma": 3749,
      "Ġdate": 3750,
      "chi": 3751,
      "Ġsurprise": 3752,
      "ĠLeague": 3753,
      "Ġsle": 3754,
      "Ġturning": 3755,
      "Ġ2011": 3756,
      "Ġviol": 3757,
      "Ġpounds": 3758,
      "ĠSchool": 3759,
      "ĠAir": 3760,
      "Ġearli": 3761,
      "Ġobs": 3762,
      "medi": 3763,
      "Ġris": 3764,
      "ĠLord": 3765,
      "Ġbackground": 3766,
      "Ġcheese": 3767,
      "back": 3768,
      "llust": 3769,
      "Ġworse": 3770,
      "Ġmanner": 3771,
      "Ġpocket": 3772,
      "Ġ2012": 3773,
      "FAT": 3774,
      "ĠMark": 3775,
      "Ġasking": 3776,
      "Ġdifference": 3777,
      "Ġcaused": 3778,
      "uel": 3779,
      "Ġcouncil": 3780,
      "Ġmm": 3781,
      "ari": 3782,
      "ural": 3783,
      "antly": 3784,
      "Ġpink": 3785,
      "Ġalive": 3786,
      "Ġdirected": 3787,
      "uckles": 3788,
      "Ġchicken": 3789,
      "Ġcrack": 3790,
      "Ġcourt": 3791,
      "ology": 3792,
      "bes": 3793,
      "ids": 3794,
      "ĠSu": 3795,
      "ĠSam": 3796,
      "ustom": 3797,
      "Ġbelow": 3798,
      "Ġsettle": 3799,
      "Ġpromise": 3800,
      "Perhaps": 3801,
      "Ne": 3802,
      "isf": 3803,
      "amund": 3804,
      "raph": 3805,
      "ĠWell": 3806,
      "Ġtwelve": 3807,
      "Ġtech": 3808,
      "ashed": 3809,
      "alt": 3810,
      "ems": 3811,
      "ĠEx": 3812,
      "dered": 3813,
      "car": 3814,
      "four": 3815,
      "Ġthanks": 3816,
      "Ġclosed": 3817,
      "Was": 3818,
      "Ġtit": 3819,
      "Ġaff": 3820,
      "ĠJapanese": 3821,
      "Tr": 3822,
      "Ġsna": 3823,
      "Ġbasket": 3824,
      "unting": 3825,
      "Ġkey": 3826,
      "laughing": 3827,
      "ĠBro": 3828,
      "olf": 3829,
      "Ġfinally": 3830,
      "brother": 3831,
      "Ġsky": 3832,
      "Ġrespons": 3833,
      "tr": 3834,
      "Ġhi": 3835,
      "outher": 3836,
      "Does": 3837,
      "ingly": 3838,
      "roat": 3839,
      "ĠEleanor": 3840,
      "Ġblank": 3841,
      "eneral": 3842,
      "ĠQue": 3843,
      "pose": 3844,
      "Ġconne": 3845,
      "ansas": 3846,
      "Ġraised": 3847,
      "SE": 3848,
      "Ġbeyond": 3849,
      "Ġstren": 3850,
      "Ġrefer": 3851,
      "ique": 3852,
      "Ġfle": 3853,
      "ĠJwww": 3854,
      "Ġintro": 3855,
      "Ġhelped": 3856,
      "Ġpolicy": 3857,
      "Ġtend": 3858,
      "Ġstage": 3859,
      "Ġstars": 3860,
      "str": 3861,
      "Many": 3862,
      "Ġmix": 3863,
      "ruction": 3864,
      "upid": 3865,
      "Ġjoined": 3866,
      "ĠRepubl": 3867,
      "Sure": 3868,
      "vious": 3869,
      "ushing": 3870,
      "ably": 3871,
      "osaur": 3872,
      "ighs": 3873,
      "ENT": 3874,
      "mit": 3875,
      "yer": 3876,
      "field": 3877,
      "Ġfool": 3878,
      "ett": 3879,
      "aded": 3880,
      "ĠAt": 3881,
      "oph": 3882,
      "ELL": 3883,
      "Ġdeter": 3884,
      "ico": 3885,
      "rage": 3886,
      "Ġmanage": 3887,
      "conom": 3888,
      "ĠCo": 3889,
      "Ġ2016": 3890,
      "._": 3891,
      "wise": 3892,
      "15": 3893,
      "VER": 3894,
      "Ġbrief": 3895,
      "Ġmum": 3896,
      "hire": 3897,
      "During": 3898,
      "Ġ&": 3899,
      "Ġclever": 3900,
      "Ġsquare": 3901,
      "May": 3902,
      "zen": 3903,
      "rey": 3904,
      "Ġnobody": 3905,
      "Ġimmedi": 3906,
      "Ġoppos": 3907,
      "Ġcommunity": 3908,
      "outhern": 3909,
      "Ġcovered": 3910,
      "Ġasleep": 3911,
      "Ġspoon": 3912,
      "Um": 3913,
      "UN": 3914,
      "pers": 3915,
      "Ġet": 3916,
      "ville": 3917,
      "inct": 3918,
      "Ġmagnet": 3919,
      "Ġdestroy": 3920,
      "Our": 3921,
      "Ġdirty": 3922,
      "Ġcrit": 3923,
      "sn": 3924,
      "rect": 3925,
      "ĠChe": 3926,
      "Ġlikely": 3927,
      "Ġphot": 3928,
      "Ġinclude": 3929,
      "Ġthreat": 3930,
      "iment": 3931,
      "Ġprocess": 3932,
      "Ġagree": 3933,
      "ivil": 3934,
      "Ġpossib": 3935,
      "12": 3936,
      "ĠTHAT": 3937,
      "ĠTexas": 3938,
      "Ġarrest": 3939,
      "worth": 3940,
      "Ġbound": 3941,
      "Ġden": 3942,
      "raw": 3943,
      "af": 3944,
      "Ġgrew": 3945,
      "asp": 3946,
      "Their": 3947,
      "Ġrese": 3948,
      "ittee": 3949,
      "thern": 3950,
      "Ġstreng": 3951,
      "Ġhm": 3952,
      "Ġscared": 3953,
      "azing": 3954,
      "Ġspeed": 3955,
      "Very": 3956,
      "Ġwest": 3957,
      "urb": 3958,
      "Ġcoat": 3959,
      "Ġfre": 3960,
      "Ġye": 3961,
      "Ġspring": 3962,
      "oughs": 3963,
      "ago": 3964,
      "bre": 3965,
      "five": 3966,
      "vocal": 3967,
      "Ġthinks": 3968,
      "cer": 3969,
      "gen": 3970,
      "uce": 3971,
      "oved": 3972,
      "Fraser": 3973,
      "ns": 3974,
      "Ġrace": 3975,
      "ĠDad": 3976,
      "Ġspl": 3977,
      "Ġfamous": 3978,
      "Which": 3979,
      "Ġcrowd": 3980,
      "ĠSer": 3981,
      "Ġpleasure": 3982,
      "Ad": 3983,
      "yle": 3984,
      "uses": 3985,
      "Ġ100": 3986,
      "ĠDist": 3987,
      "Ġnumbers": 3988,
      "ĠSteven": 3989,
      "Ġninet": 3990,
      "ini": 3991,
      "Ġdrew": 3992,
      "Ġfem": 3993,
      "lden": 3994,
      "ĠRob": 3995,
      "RI": 3996,
      "othy": 3997,
      "chie": 3998,
      "ashion": 3999,
      "Ġprovince": 4000,
      "Illust": 4001,
      "Since": 4002,
      "itor": 4003,
      "Ġcru": 4004,
      "Ġfright": 4005,
      "Ġconv": 4006,
      "Ġfresh": 4007,
      "AK": 4008,
      "Ġlines": 4009,
      "Ġupstairs": 4010,
      "ĠFred": 4011,
      "Ġspeaking": 4012,
      "Ġtotal": 4013,
      "Never": 4014,
      "Pl": 4015,
      "Ġmeat": 4016,
      "Ġdriving": 4017,
      "Ġsens": 4018,
      "ĠAmy": 4019,
      "Only": 4020,
      "oly": 4021,
      "Ġhero": 4022,
      "Ġnaught": 4023,
      "ĠPark": 4024,
      "ortun": 4025,
      "Ġairport": 4026,
      "ĠSunday": 4027,
      "line": 4028,
      "Ġbattle": 4029,
      "Ġweap": 4030,
      "Ġelection": 4031,
      "Ġsatisf": 4032,
      "Ġpenc": 4033,
      "Ġgate": 4034,
      "ĠMart": 4035,
      "Ġbroad": 4036,
      "phant": 4037,
      "Ġnatural": 4038,
      "Ġdig": 4039,
      "anny": 4040,
      "Before": 4041,
      "ĠIndians": 4042,
      "cul": 4043,
      "Ġhiding": 4044,
      "Ġrough": 4045,
      "ivid": 4046,
      "obert": 4047,
      "ĠGermany": 4048,
      "Ġapart": 4049,
      "ĠGovern": 4050,
      "hand": 4051,
      "erved": 4052,
      "atic": 4053,
      "big": 4054,
      "enry": 4055,
      "add": 4056,
      "Ġstream": 4057,
      "cience": 4058,
      "Ġvarious": 4059,
      "Br": 4060,
      "Ġtries": 4061,
      "Ġteddy": 4062,
      "arm": 4063,
      "ademy": 4064,
      "these": 4065,
      "Ġcalling": 4066,
      "Ġregular": 4067,
      "IF": 4068,
      "Ġident": 4069,
      "Ġdin": 4070,
      "Ġgod": 4071,
      "ĠJones": 4072,
      "Ġgrad": 4073,
      "199": 4074,
      "Ġexplain": 4075,
      "Mum": 4076,
      "Sir": 4077,
      "ja": 4078,
      "oom": 4079,
      "Ġsett": 4080,
      "Ġcaptain": 4081,
      "Ġmissing": 4082,
      "Ed": 4083,
      "vey": 4084,
      "Ġanywhere": 4085,
      "Ġarrived": 4086,
      "Mhm": 4087,
      "cast": 4088,
      "Ġsize": 4089,
      "ests": 4090,
      "Ġneedta": 4091,
      "ux": 4092,
      "reme": 4093,
      "antic": 4094,
      "Ġways": 4095,
      "Ġ2008": 4096,
      "Ġterms": 4097,
      "Ġskin": 4098,
      "Ġsimply": 4099,
      "initely": 4100,
      "Ġfol": 4101,
      "Ġstories": 4102,
      "ĠBill": 4103,
      "Ġsandw": 4104,
      "ables": 4105,
      "ĠEll": 4106,
      "Ġflat": 4107,
      "30": 4108,
      "Most": 4109,
      "Other": 4110,
      "asons": 4111,
      "ongress": 4112,
      "berry": 4113,
      "aching": 4114,
      "ĠDem": 4115,
      "arth": 4116,
      "arah": 4117,
      "Ġthrew": 4118,
      "Ġserved": 4119,
      "whoops": 4120,
      "Ġbirds": 4121,
      "hal": 4122,
      "Ġlion": 4123,
      "asure": 4124,
      "Ġformed": 4125,
      "Ġund": 4126,
      "Ġended": 4127,
      "ĠChampions": 4128,
      "Ġofficer": 4129,
      "ĠLoire": 4130,
      "God": 4131,
      "ĠParty": 4132,
      "Ġlargest": 4133,
      "Ġsteps": 4134,
      "ere": 4135,
      "fit": 4136,
      "Ġbell": 4137,
      "Ġforth": 4138,
      "Ġstorm": 4139,
      "ĠBut": 4140,
      "epend": 4141,
      "ĠChristian": 4142,
      "burg": 4143,
      "Am": 4144,
      "ially": 4145,
      "ĠEast": 4146,
      "Ke": 4147,
      "Ġtight": 4148,
      "ences": 4149,
      "Ġnur": 4150,
      "Ġsleeping": 4151,
      "Ġoriginal": 4152,
      "Ġtou": 4153,
      "itude": 4154,
      "ĠAc": 4155,
      "Ġplaced": 4156,
      "Ġ22": 4157,
      "Ġjoin": 4158,
      "Michael": 4159,
      "stit": 4160,
      "Ġrich": 4161,
      "order": 4162,
      "Ġrabb": 4163,
      "Ġentered": 4164,
      "Ġhappening": 4165,
      "Ġwound": 4166,
      "Ġdressed": 4167,
      "Ġnotice": 4168,
      "Ġplane": 4169,
      "Ġsuff": 4170,
      "Ġrose": 4171,
      "Ġrelations": 4172,
      "ĠAnge": 4173,
      "ĠHarry": 4174,
      "Ġlaid": 4175,
      "Ġconside": 4176,
      "Ġguard": 4177,
      "Ġsurprised": 4178,
      "Ġconsidered": 4179,
      "Mama": 4180,
      "ĠHelen": 4181,
      "Ġstudy": 4182,
      "ĠCharlie": 4183,
      "erland": 4184,
      "Ġpeace": 4185,
      "Ġonto": 4186,
      "ĠColl": 4187,
      "Ġmarket": 4188,
      "Ġtax": 4189,
      "ĠAlexander": 4190,
      "Ġstarting": 4191,
      "Ġhardly": 4192,
      "Ġangry": 4193,
      "ita": 4194,
      "oring": 4195,
      "ached": 4196,
      "Ġ2017": 4197,
      "log": 4198,
      "Ġspread": 4199,
      "Ġwelcome": 4200,
      "mine": 4201,
      "pa": 4202,
      "sil": 4203,
      "pper": 4204,
      "ĠDor": 4205,
      "Ġcollege": 4206,
      "NG": 4207,
      "Ġstupid": 4208,
      "ĠSan": 4209,
      "Ġwheel": 4210,
      "Bomba": 4211,
      "icious": 4212,
      "ĠSaturday": 4213,
      "Ġpray": 4214,
      "Ġshape": 4215,
      "Ġmostly": 4216,
      "David": 4217,
      "ipped": 4218,
      "Ġbuck": 4219,
      "Ġtower": 4220,
      "ĠBE": 4221,
      "Ġenv": 4222,
      "Ġpurple": 4223,
      "Ġninety": 4224,
      "sorry": 4225,
      "ĠMy": 4226,
      "Ġ27": 4227,
      "ĠEm": 4228,
      "Ġloves": 4229,
      "hin": 4230,
      "lor": 4231,
      "Ġdeli": 4232,
      "Ġfinal": 4233,
      "Ġmissed": 4234,
      "ĠPeggy": 4235,
      "Ġinvolved": 4236,
      "anch": 4237,
      "edy": 4238,
      "Ġlaug": 4239,
      "ĠWind": 4240,
      "Ġtrad": 4241,
      "Ġmachine": 4242,
      "Ġplate": 4243,
      "Ġyouth": 4244,
      "ĠFather": 4245,
      "ĠFOR": 4246,
      "Ġsimple": 4247,
      "Ġfilm": 4248,
      "Could": 4249,
      "craft": 4250,
      "Ġtone": 4251,
      "Ġbomb": 4252,
      "Ġcult": 4253,
      "Ġmir": 4254,
      "Ġur": 4255,
      "ival": 4256,
      "Ġsharp": 4257,
      "11": 4258,
      "ĠMac": 4259,
      "ĠStreet": 4260,
      "Ġcabin": 4261,
      "Ġlaughed": 4262,
      "Ġmer": 4263,
      "Ġpet": 4264,
      "anda": 4265,
      "Ġ26": 4266,
      "Ġ28": 4267,
      "ĠMarie": 4268,
      "Ġemploy": 4269,
      "People": 4270,
      "OP": 4271,
      "boy": 4272,
      "ergy": 4273,
      "ĠCouncil": 4274,
      "ĠSch": 4275,
      "ĠAre": 4276,
      "Ġswing": 4277,
      "Excuse": 4278,
      "Ġearlier": 4279,
      "lected": 4280,
      "ooth": 4281,
      "ĠMus": 4282,
      "ĠLady": 4283,
      "Ġfighting": 4284,
      "ĠRosamund": 4285,
      "Ġnaughty": 4286,
      "New": 4287,
      "Ġaged": 4288,
      "Ġaction": 4289,
      "AMY": 4290,
      "200": 4291,
      "History": 4292,
      "orough": 4293,
      "Ġsheep": 4294,
      "Ġ()": 4295,
      "ION": 4296,
      "Ġlap": 4297,
      "Ġnet": 4298,
      "ctions": 4299,
      "Ġradio": 4300,
      "father": 4301,
      "Ġforty": 4302,
      "Ġgoodness": 4303,
      "ension": 4304,
      "Ġoccur": 4305,
      "Ġknights": 4306,
      "Ġpan": 4307,
      "ensive": 4308,
      "Ġcompletely": 4309,
      "itzerland": 4310,
      "make": 4311,
      "ĠIS": 4312,
      "outs": 4313,
      "ours": 4314,
      "gl": 4315,
      "ĠTHI": 4316,
      "ousin": 4317,
      "ails": 4318,
      "Ġpleased": 4319,
      "50": 4320,
      "Ġdru": 4321,
      "Ġtherefore": 4322,
      "Ġcomputer": 4323,
      "About": 4324,
      "Ġreact": 4325,
      "Ġareas": 4326,
      "Ġtwice": 4327,
      "Ġclown": 4328,
      "izes": 4329,
      "Ġsupper": 4330,
      "Ġdangerous": 4331,
      "Ġannounced": 4332,
      "ĠBradford": 4333,
      "UR": 4334,
      "daddy": 4335,
      "rim": 4336,
      "ĠBra": 4337,
      "ĠHigh": 4338,
      "Ġ186": 4339,
      "Ġsusp": 4340,
      "Ġconversation": 4341,
      "LY": 4342,
      "Sha": 4343,
      "point": 4344,
      "Ġwake": 4345,
      "orks": 4346,
      "Ġtrick": 4347,
      "Ġfalling": 4348,
      "ĠSwitzerland": 4349,
      "Gu": 4350,
      "another": 4351,
      "Ġsevent": 4352,
      "Ġsearch": 4353,
      "oday": 4354,
      "oken": 4355,
      "Ġladies": 4356,
      "ders": 4357,
      "anish": 4358,
      "hered": 4359,
      "ĠTur": 4360,
      "ĠOK": 4361,
      "Ġfallen": 4362,
      "Ag": 4363,
      "Ġphys": 4364,
      "oma": 4365,
      "lear": 4366,
      "usion": 4367,
      "rab": 4368,
      "ĠRed": 4369,
      "uhuh": 4370,
      "Ġnineteen": 4371,
      "'?": 4372,
      "Ġthroat": 4373,
      "ĠME": 4374,
      "Ġactress": 4375,
      "Ġeasily": 4376,
      "ĠRichard": 4377,
      "ĠDistrict": 4378,
      "inal": 4379,
      "Ġweather": 4380,
      "ĠQu": 4381,
      "sm": 4382,
      "Ġcell": 4383,
      "Ġduty": 4384,
      "iance": 4385,
      "Ġmoves": 4386,
      "ĠGerva": 4387,
      "Ġpolitical": 4388,
      "Ġstrugg": 4389,
      "paper": 4390,
      "Ġcuri": 4391,
      "ota": 4392,
      "Ġ29": 4393,
      "ples": 4394,
      "Ġscene": 4395,
      "Ġmistake": 4396,
      "Ġhouses": 4397,
      "Ġbite": 4398,
      "ĠCor": 4399,
      "ĠWhy": 4400,
      "ĠIrene": 4401,
      "Ġcrew": 4402,
      "arrow": 4403,
      "Ġgrou": 4404,
      "Ġ2007": 4405,
      "Ġopportun": 4406,
      "Ġdeclared": 4407,
      "Ġempty": 4408,
      "Ġpuzzle": 4409,
      "could": 4410,
      "van": 4411,
      "Ġsocial": 4412,
      "osh": 4413,
      "Ġ2013": 4414,
      "Ġchap": 4415,
      "Ġescape": 4416,
      "Ġfilled": 4417,
      "IM": 4418,
      "gress": 4419,
      "Ġpir": 4420,
      "lebr": 4421,
      "Ġshirt": 4422,
      "ĠWho": 4423,
      "ĠOk": 4424,
      "Ġ2006": 4425,
      "Dad": 4426,
      "ĠAward": 4427,
      "ĠLet": 4428,
      "atherine": 4429,
      "Ġhigher": 4430,
      "ĠGervaise": 4431,
      "ola": 4432,
      "dat": 4433,
      "Ġwit": 4434,
      "Ġhello": 4435,
      "Ġnote": 4436,
      "Ġunless": 4437,
      "ĠChic": 4438,
      "ointed": 4439,
      "uke": 4440,
      "Ġide": 4441,
      "Ġrate": 4442,
      "eman": 4443,
      "ockey": 4444,
      "Ġlearned": 4445,
      "ĠMinister": 4446,
      "Ġ)": 4447,
      "reg": 4448,
      "Ġeconom": 4449,
      "Ġallow": 4450,
      "Ġenc": 4451,
      "ungle": 4452,
      "Ġquarter": 4453,
      "Ġnecessary": 4454,
      "eg": 4455,
      "oos": 4456,
      "ocrat": 4457,
      "Ġwinter": 4458,
      "Ġpencil": 4459,
      "Bob": 4460,
      "Ġboot": 4461,
      "ĠLa": 4462,
      "Ġsuit": 4463,
      "Ġcoach": 4464,
      "Ġfellows": 4465,
      "Ġ50": 4466,
      "Ġexcited": 4467,
      "Ġtemper": 4468,
      "Ã¼": 4469,
      "arry": 4470,
      "Ġnature": 4471,
      "rain": 4472,
      "Illustration": 4473,
      "igs": 4474,
      "ĠJust": 4475,
      "Ġcolors": 4476,
      "Ġmentioned": 4477,
      ".,": 4478,
      "Cel": 4479,
      "Ġmerc": 4480,
      "Ġate": 4481,
      "those": 4482,
      "ively": 4483,
      "Ġpersonal": 4484,
      "Ġhonest": 4485,
      "Con": 4486,
      "ĠUnion": 4487,
      "Ġchem": 4488,
      "Ġwalks": 4489,
      "Ġpublished": 4490,
      "Ġestab": 4491,
      "Ġinflu": 4492,
      "ĠII": 4493,
      "Ġappl": 4494,
      "Ġflying": 4495,
      "IGHT": 4496,
      "Ġstrength": 4497,
      "umber": 4498,
      "ĠJesus": 4499,
      "Ġsinger": 4500,
      "Ġaddress": 4501,
      "Ġpulled": 4502,
      "Ġlucky": 4503,
      "Ġepis": 4504,
      "pro": 4505,
      "aries": 4506,
      "Ġnea": 4507,
      "Ġroof": 4508,
      "Ġplant": 4509,
      "ĠHarr": 4510,
      "Ġ2009": 4511,
      "Ġmilitary": 4512,
      "Ġlips": 4513,
      "Ġrelig": 4514,
      "Ġawful": 4515,
      "ening": 4516,
      "Ġthick": 4517,
      "imit": 4518,
      "ĠPort": 4519,
      "Ġenemy": 4520,
      "Ġimm": 4521,
      "ĠHey": 4522,
      "Ġble": 4523,
      "Ġeager": 4524,
      "ĠBer": 4525,
      "Ġclock": 4526,
      "Ġoffer": 4527,
      "Ġ2014": 4528,
      "Ġexpected": 4529,
      "Ġpractice": 4530,
      "Ġspirit": 4531,
      "noise": 4532,
      "ĠCreek": 4533,
      "Ġdeg": 4534,
      "este": 4535,
      "Ġsurface": 4536,
      "ĠChair": 4537,
      "heart": 4538,
      "Ġfru": 4539,
      "Ġnon": 4540,
      "ucker": 4541,
      "Ġdesk": 4542,
      "Ġdevelopment": 4543,
      "ij": 4544,
      "ups": 4545,
      "Ġbeside": 4546,
      "bell": 4547,
      "ators": 4548,
      "Ġpercent": 4549,
      "Ġmedic": 4550,
      "Ġmamma": 4551,
      "Ġimmediately": 4552,
      "hem": 4553,
      "Ġoffe": 4554,
      "ucky": 4555,
      "Ġfaith": 4556,
      "Ġtong": 4557,
      "ĠMat": 4558,
      "Ġdeb": 4559,
      "Ġbye": 4560,
      "bered": 4561,
      "Ġproud": 4562,
      "Ġstands": 4563,
      "Ġwatched": 4564,
      "First": 4565,
      "book": 4566,
      "Ġpun": 4567,
      "Ġscream": 4568,
      "Ġbill": 4569,
      "Ġpath": 4570,
      "keep": 4571,
      "Ġhadn": 4572,
      "ĠJenn": 4573,
      "Ġadvent": 4574,
      "Ġwa": 4575,
      "Rem": 4576,
      "Ġsoul": 4577,
      "Ġinj": 4578,
      "ify": 4579,
      "Ġshore": 4580,
      "Ġshoulder": 4581,
      "Ġkeeping": 4582,
      "ram": 4583,
      "vo": 4584,
      "Ġinqu": 4585,
      "ĠTV": 4586,
      "eless": 4587,
      "ĠNot": 4588,
      "Ġusual": 4589,
      "Ġrights": 4590,
      "Ġacqu": 4591,
      "minist": 4592,
      "Char": 4593,
      "Ġbother": 4594,
      "arily": 4595,
      "Ġrap": 4596,
      "anche": 4597,
      "every": 4598,
      "Ġham": 4599,
      "icle": 4600,
      "idden": 4601,
      "ĠPer": 4602,
      "Ġshoe": 4603,
      "Ġplain": 4604,
      "ciety": 4605,
      "Ġappre": 4606,
      "Ġcheer": 4607,
      "Ġmoon": 4608,
      "Ġnoticed": 4609,
      "ĠInternational": 4610,
      "colm": 4611,
      "YOU": 4612,
      "Ġiron": 4613,
      "Ġboo": 4614,
      "Ġjoy": 4615,
      "ĠGeneral": 4616,
      "obile": 4617,
      "Ġpurpose": 4618,
      "Ġmessage": 4619,
      "Ġwoods": 4620,
      "Ġhurry": 4621,
      "Ġsaved": 4622,
      "Ġearn": 4623,
      "Ġtowns": 4624,
      "Ġfault": 4625,
      "16": 4626,
      "show": 4627,
      "Ġtiny": 4628,
      "Ġaud": 4629,
      "eech": 4630,
      "Ġpromised": 4631,
      "Ġoccup": 4632,
      "Ġoccasion": 4633,
      "Ġdinosaur": 4634,
      "Ġgroups": 4635,
      "While": 4636,
      "achel": 4637,
      "Ġspr": 4638,
      "Ġvan": 4639,
      "Ġimpro": 4640,
      "Ġmotion": 4641,
      "ĠLouis": 4642,
      "Che": 4643,
      "ius": 4644,
      "Ġunc": 4645,
      "ummer": 4646,
      "ĠAlbert": 4647,
      "icated": 4648,
      "ira": 4649,
      "Ġsail": 4650,
      "ĠJul": 4651,
      "Ġgrown": 4652,
      "Ġindust": 4653,
      "Ġdogs": 4654,
      "Ġfigures": 4655,
      "ĠSteve": 4656,
      "Ġprofessional": 4657,
      "Ġbunny": 4658,
      "cely": 4659,
      "aboo": 4660,
      "Ġprim": 4661,
      "Ġapple": 4662,
      "CK": 4663,
      "Man": 4664,
      "Ġmater": 4665,
      "Ġow": 4666,
      "Ġloss": 4667,
      "Ġemb": 4668,
      "ĠRam": 4669,
      "Ġremem": 4670,
      "Ġlights": 4671,
      "Ġdirector": 4672,
      "US": 4673,
      "fall": 4674,
      "Ġstone": 4675,
      "actually": 4676,
      "Ġourselves": 4677,
      "ĠAustralia": 4678,
      "OD": 4679,
      "ugg": 4680,
      "Ġdancing": 4681,
      "urity": 4682,
      "Ġcontinues": 4683,
      "Ġnormal": 4684,
      "AVE": 4685,
      "Jack": 4686,
      "rican": 4687,
      "Ġstates": 4688,
      "Ġagreed": 4689,
      "Ġbedroom": 4690,
      "Ġelephant": 4691,
      "Ġwearing": 4692,
      "Ġissue": 4693,
      "Ġswimming": 4694,
      "Ġfashion": 4695,
      "Ġexist": 4696,
      "Ġbegin": 4697,
      "Ġfifteen": 4698,
      "Ġproduced": 4699,
      "eer": 4700,
      "jo": 4701,
      "non": 4702,
      "Ġcities": 4703,
      "ĠHenry": 4704,
      "Ġstruck": 4705,
      "Ġbutton": 4706,
      "Ġbless": 4707,
      "Ġevidence": 4708,
      "Ġmurder": 4709,
      "ĠAcademy": 4710,
      "IL": 4711,
      "OL": 4712,
      "ĠSy": 4713,
      "cend": 4714,
      "aren": 4715,
      "Ġenergy": 4716,
      "Ġsmoke": 4717,
      "Ġhotel": 4718,
      "Ġexperience": 4719,
      "Ġcalm": 4720,
      "Ġavail": 4721,
      "Ġremarked": 4722,
      "Ġutter": 4723,
      "],": 4724,
      "lot": 4725,
      "utch": 4726,
      "Ġrevol": 4727,
      "Ġnurs": 4728,
      "Ġmeaning": 4729,
      "Ġcountries": 4730,
      "Ġindivid": 4731,
      "Ġgentleman": 4732,
      "Celeste": 4733,
      "Ma": 4734,
      "Ġmud": 4735,
      "Ġmicro": 4736,
      "Ġplans": 4737,
      "ĠKore": 4738,
      "Cos": 4739,
      "Got": 4740,
      "orter": 4741,
      "Ġhuge": 4742,
      "Ġflight": 4743,
      "Ġheads": 4744,
      "ĠChris": 4745,
      "Ġabsolutely": 4746,
      "WE": 4747,
      "dis": 4748,
      "Ġjour": 4749,
      "Ġplenty": 4750,
      "Ġtells": 4751,
      "ledge": 4752,
      "Ġleader": 4753,
      "cue": 4754,
      "Ġcart": 4755,
      "asc": 4756,
      "ooper": 4757,
      "Ġdoc": 4758,
      "going": 4759,
      "Ġlistening": 4760,
      "Ġchoice": 4761,
      "Ben": 4762,
      "aign": 4763,
      "pos": 4764,
      "irgin": 4765,
      "ourt": 4766,
      "iction": 4767,
      "Ġattract": 4768,
      "Ġeleven": 4769,
      "Ġsongs": 4770,
      "Ġguns": 4771,
      "nie": 4772,
      "Ġweight": 4773,
      "Ġ2015": 4774,
      "water": 4775,
      "Ġpool": 4776,
      "osta": 4777,
      "Ġcoast": 4778,
      "Ġsmart": 4779,
      "Keep": 4780,
      "coughs": 4781,
      "mie": 4782,
      "vell": 4783,
      "ĠSant": 4784,
      "Ġjungle": 4785,
      "ĠNe": 4786,
      "Ġfeat": 4787,
      "oves": 4788,
      "ords": 4789,
      "ossible": 4790,
      "ĠSen": 4791,
      "Aye": 4792,
      "asy": 4793,
      "oted": 4794,
      "ĠDO": 4795,
      "Ġremained": 4796,
      "Ġgrave": 4797,
      "Ġhistor": 4798,
      "Ġsoldiers": 4799,
      "Se": 4800,
      "rated": 4801,
      "Ġturt": 4802,
      "ending": 4803,
      "ression": 4804,
      "Ġdesp": 4805,
      "Once": 4806,
      "Ġassist": 4807,
      "Ġedge": 4808,
      "Bart": 4809,
      "somet": 4810,
      "rees": 4811,
      "Ġcards": 4812,
      "uten": 4813,
      "ulf": 4814,
      "ĠGames": 4815,
      "Ġgenerally": 4816,
      "Ġeducation": 4817,
      "ares": 4818,
      "uild": 4819,
      "Ġfund": 4820,
      "Ġsugar": 4821,
      "ĠRo": 4822,
      "Ġtravel": 4823,
      "ification": 4824,
      "Ġthou": 4825,
      "Ġweak": 4826,
      "Ġnap": 4827,
      "ĠMatt": 4828,
      "ĠCat": 4829,
      "ĠRoman": 4830,
      "Ġofficers": 4831,
      "Ġmodern": 4832,
      "rilliant": 4833,
      "Ġtaste": 4834,
      "Ġlid": 4835,
      "cky": 4836,
      "osing": 4837,
      "plane": 4838,
      "Ġtext": 4839,
      "Ġcelebr": 4840,
      "Ġprivate": 4841,
      "Ġwestern": 4842,
      "Ġdread": 4843,
      "Ġbeha": 4844,
      "Ġblind": 4845,
      "Ġperfectly": 4846,
      "ero": 4847,
      "Ġinf": 4848,
      "Ġrow": 4849,
      "Ġproceed": 4850,
      "Ġsits": 4851,
      "Ġclearly": 4852,
      "Ġdefinitely": 4853,
      "ishes": 4854,
      "eds": 4855,
      "ĠLaw": 4856,
      "Ġperm": 4857,
      "Ġcarefully": 4858,
      "Ġtears": 4859,
      "arly": 4860,
      "Ġwaste": 4861,
      "ima": 4862,
      "Ġdownstairs": 4863,
      "inese": 4864,
      "Ġtrip": 4865,
      "Ġdiscovered": 4866,
      "Ġexcuse": 4867,
      "Ġbrave": 4868,
      "ironment": 4869,
      "AU": 4870,
      "Ġlog": 4871,
      "ĠBo": 4872,
      "open": 4873,
      "Ġships": 4874,
      "ĠRobert": 4875,
      "Ġrule": 4876,
      "Ġimagine": 4877,
      "IE": 4878,
      "his": 4879,
      "kins": 4880,
      "ĠFort": 4881,
      "ĠOkay": 4882,
      "Ġprice": 4883,
      "Ġbelieved": 4884,
      "ĠCarol": 4885,
      "Bye": 4886,
      "Ġcustom": 4887,
      "Ġfirm": 4888,
      "ura": 4889,
      "ĠGra": 4890,
      "Ġversion": 4891,
      "Ġtongue": 4892,
      "!'": 4893,
      "More": 4894,
      "happy": 4895,
      "vere": 4896,
      "ĠMont": 4897,
      "ĠJean": 4898,
      "Ġcontract": 4899,
      "Ġballs": 4900,
      "Ġeh": 4901,
      "Ġemer": 4902,
      "chuckles": 4903,
      "Ġspoken": 4904,
      "Ġyounger": 4905,
      "Ġseconds": 4906,
      "chair": 4907,
      "Ġbrothers": 4908,
      "Ġfixed": 4909,
      "14": 4910,
      "die": 4911,
      "erm": 4912,
      "ushes": 4913,
      "ĠMer": 4914,
      "ĠWAS": 4915,
      "ĠDonald": 4916,
      "Say": 4917,
      "Tom": 4918,
      "Ġcro": 4919,
      "Ġpound": 4920,
      "Ġmotor": 4921,
      "Ġcircum": 4922,
      "Ġdemand": 4923,
      "zes": 4924,
      "Ġtap": 4925,
      "Ġfaces": 4926,
      "enny": 4927,
      "using": 4928,
      "Ġneg": 4929,
      "Ġsake": 4930,
      "ĠHi": 4931,
      "Ġsurv": 4932,
      "Ġdriver": 4933,
      "Ġdefend": 4934,
      "cellent": 4935,
      "Sc": 4936,
      "fish": 4937,
      "Ġsides": 4938,
      "icy": 4939,
      "Ġnomin": 4940,
      "Ġstairs": 4941,
      "Ġcalls": 4942,
      "Ġhonor": 4943,
      "Ġhill": 4944,
      "Ġstret": 4945,
      "Ġshown": 4946,
      "ictor": 4947,
      "ilda": 4948,
      "Ġ187": 4949,
      "should": 4950,
      "Ġchocol": 4951,
      "Ġnurse": 4952,
      "iot": 4953,
      "ni": 4954,
      "nic": 4955,
      "inc": 4956,
      "Ġheat": 4957,
      "Ġarrow": 4958,
      "Ġbrush": 4959,
      "Ġopposite": 4960,
      "Ġopportunity": 4961,
      "oons": 4962,
      "Ġtaught": 4963,
      "Ġwed": 4964,
      "ena": 4965,
      "ĠMum": 4966,
      "Ġneither": 4967,
      "istic": 4968,
      "ĠHam": 4969,
      "Ġworried": 4970,
      "Ġafterwards": 4971,
      "Ġteach": 4972,
      "looking": 4973,
      "Ġmonster": 4974,
      "Ġdecision": 4975,
      "Ġcraw": 4976,
      "Great": 4977,
      "cut": 4978,
      "Ġbal": 4979,
      "Ġdare": 4980,
      "actor": 4981,
      "Ġlawyer": 4982,
      "Ġmodel": 4983,
      "Wow": 4984,
      "_.": 4985,
      "dad": 4986,
      "iring": 4987,
      "ĠBel": 4988,
      "Ġruns": 4989,
      "ĠBlack": 4990,
      "ĠMother": 4991,
      "iel": 4992,
      "Ġrail": 4993,
      "Ġfounded": 4994,
      "ĠProv": 4995,
      "Ġanxious": 4996,
      "Ind": 4997,
      "Ġpill": 4998,
      "Ġscr": 4999,
      "Ġdistribut": 5000,
      "Ġenter": 5001,
      "Ġmountain": 5002,
      "CE": 5003,
      "rid": 5004,
      "Ġshad": 5005,
      "Ġaddition": 5006,
      "OME": 5007,
      "ĠDorothy": 5008,
      "Le": 5009,
      "eat": 5010,
      "Ġpa": 5011,
      "ĠChan": 5012,
      "elle": 5013,
      "ĠRE": 5014,
      "Ġbrain": 5015,
      "ĠItalian": 5016,
      "13": 5017,
      "Mother": 5018,
      "sed": 5019,
      "ĠSid": 5020,
      "Ġpaint": 5021,
      "Ġsnake": 5022,
      "Ġnorthwest": 5023,
      "Ġpleasant": 5024,
      "Ġox": 5025,
      "ĠLem": 5026,
      "ĠEn": 5027,
      "ĠFlor": 5028,
      "Ġwrest": 5029,
      "Ġdouble": 5030,
      "ĠAlf": 5031,
      "Ġhelping": 5032,
      "Ġcentre": 5033,
      "Ġincluded": 5034,
      "ĠEuropean": 5035,
      "Sometimes": 5036,
      "Ġknife": 5037,
      "Ġjourney": 5038,
      "ners": 5039,
      "Ġtiger": 5040,
      "hee": 5041,
      "ĠMid": 5042,
      "ĠGO": 5043,
      "Ġcomment": 5044,
      "Ġharm": 5045,
      "Ġaccording": 5046,
      "blue": 5047,
      "Ġforest": 5048,
      "Ġproperly": 5049,
      "Ġtoast": 5050,
      "Ġstock": 5051,
      "istan": 5052,
      "Ġspeech": 5053,
      "Those": 5054,
      "Ġcontact": 5055,
      "Ġstraw": 5056,
      "ae": 5057,
      "hod": 5058,
      "Ġtar": 5059,
      "Ġreck": 5060,
      "ĠMor": 5061,
      "ĠMot": 5062,
      "ĠDou": 5063,
      "Ġchoose": 5064,
      "Ġprepared": 5065,
      "making": 5066,
      "Ġchat": 5067,
      "Ġvote": 5068,
      "fection": 5069,
      "angle": 5070,
      "arently": 5071,
      "Ġeffort": 5072,
      "Gl": 5073,
      "UK": 5074,
      "oid": 5075,
      "Ġ#": 5076,
      "Ġlower": 5077,
      "Ġant": 5078,
      "ĠDada": 5079,
      "ĠKitty": 5080,
      "Ġ2005": 5081,
      "Ġopening": 5082,
      "Ġbathroom": 5083,
      "Ooh": 5084,
      "bly": 5085,
      "icate": 5086,
      "onday": 5087,
      "Three": 5088,
      "izing": 5089,
      "Ġservices": 5090,
      "Ġevident": 5091,
      "Ġrange": 5092,
      "Ġdere": 5093,
      "ĠLittle": 5094,
      "Ġgrowing": 5095,
      "ĠCharles": 5096,
      "Ġbudget": 5097,
      "Ġsandwich": 5098,
      "host": 5099,
      "ache": 5100,
      "Ġforces": 5101,
      "Ġeighty": 5102,
      "aura": 5103,
      "Ġrabbit": 5104,
      "Acc": 5105,
      "TH": 5106,
      "ua": 5107,
      "ĠTony": 5108,
      "ĠGl": 5109,
      "aked": 5110,
      "Ġfalls": 5111,
      "Ġmagaz": 5112,
      "Ġwalls": 5113,
      "Ġstructure": 5114,
      "inting": 5115,
      "oured": 5116,
      "Ġmut": 5117,
      "ooting": 5118,
      "ĠJo": 5119,
      "ĠChurch": 5120,
      "Ġkinda": 5121,
      "Ġsurround": 5122,
      "ĠSpanish": 5123,
      "sure": 5124,
      "hest": 5125,
      "really": 5126,
      "ona": 5127,
      "Ġdun": 5128,
      "ĠPays": 5129,
      "Ġquality": 5130,
      "Ġfairly": 5131,
      "Ġcomfortable": 5132,
      "iggles": 5133,
      "ĠChairman": 5134,
      "rick": 5135,
      "Ġrom": 5136,
      "Ġsour": 5137,
      "Ġcivil": 5138,
      "Ġexec": 5139,
      "ĠKe": 5140,
      "Ġimpossible": 5141,
      "ĠMalcolm": 5142,
      "ĠSecret": 5143,
      "ocratic": 5144,
      "Poss": 5145,
      "Tw": 5146,
      "ĠMed": 5147,
      "urry": 5148,
      "ĠWil": 5149,
      "soft": 5150,
      "Ġindepend": 5151,
      "Ġcontinue": 5152,
      "ĠBobby": 5153,
      "Ġparticularly": 5154,
      "Ġpapers": 5155,
      "ĠQueen": 5156,
      "Hold": 5157,
      "chard": 5158,
      "Ġpin": 5159,
      "ria": 5160,
      "Ġstro": 5161,
      "ĠPal": 5162,
      "thew": 5163,
      "Ġbringing": 5164,
      "ompany": 5165,
      "Ġvictim": 5166,
      ",âĢĻ": 5167,
      "fly": 5168,
      "Ġtun": 5169,
      "Ġpants": 5170,
      "omen": 5171,
      "apa": 5172,
      "pering": 5173,
      "Ġschools": 5174,
      "Ġcampaign": 5175,
      "Ġcorrect": 5176,
      "Ġconcerned": 5177,
      "LES": 5178,
      "Ãº": 5179,
      "Ġcases": 5180,
      "enne": 5181,
      "ication": 5182,
      "Ġdoggie": 5183,
      "Ġwilling": 5184,
      "cip": 5185,
      "Ġscrew": 5186,
      "Ġobviously": 5187,
      "Ġhunting": 5188,
      "aly": 5189,
      "cts": 5190,
      "abr": 5191,
      "Ġsomewhat": 5192,
      "Ġstayed": 5193,
      "Ġeasier": 5194,
      "Ġreaches": 5195,
      "silver": 5196,
      "Ġchocolate": 5197,
      "**": 5198,
      "Ġstyle": 5199,
      "ĠMinn": 5200,
      "Ġmanaged": 5201,
      "ĠCarl": 5202,
      "Grand": 5203,
      "Ġwagon": 5204,
      "Ġinvestig": 5205,
      "Ġsettled": 5206,
      "Chi": 5207,
      "Ġliter": 5208,
      "Ġcondition": 5209,
      "GE": 5210,
      "vi": 5211,
      "Ġcanton": 5212,
      "Ġeld": 5213,
      "Ġcondu": 5214,
      "Ġknees": 5215,
      "Ġlocated": 5216,
      "Ġrisk": 5217,
      "Dr": 5218,
      "mar": 5219,
      "Ġscient": 5220,
      "isa": 5221,
      "Ġgro": 5222,
      "Ġbeach": 5223,
      "Ġcancer": 5224,
      "Ġsuc": 5225,
      "--\"": 5226,
      "lotte": 5227,
      "Ġir": 5228,
      "aches": 5229,
      "eaks": 5230,
      "Ġknowing": 5231,
      "ĠNav": 5232,
      "Ġclaim": 5233,
      "Although": 5234,
      "ĠCanada": 5235,
      "ĠGeorg": 5236,
      "Ġfemale": 5237,
      "Ġsucceed": 5238,
      "real": 5239,
      "Ġmult": 5240,
      "Ġoil": 5241,
      "essel": 5242,
      "Ġlatter": 5243,
      "Ġslaves": 5244,
      "ĠChina": 5245,
      "Ġsmaller": 5246,
      "Ġcenter": 5247,
      "Ġobjects": 5248,
      "ĠPlay": 5249,
      "mn": 5250,
      "wing": 5251,
      "atoes": 5252,
      "Ġthus": 5253,
      "sequ": 5254,
      "ĠCass": 5255,
      "Ġflower": 5256,
      "ounce": 5257,
      "Ġmovement": 5258,
      "ĠSmith": 5259,
      "cy": 5260,
      "itched": 5261,
      "aning": 5262,
      "nolog": 5263,
      "Ġdozen": 5264,
      "Ġstaff": 5265,
      "ĠRand": 5266,
      "Ġworst": 5267,
      "Ġvac": 5268,
      "Ġaffect": 5269,
      "appy": 5270,
      "ĠDoctor": 5271,
      "mined": 5272,
      "Ġtask": 5273,
      "Ġprevious": 5274,
      "Ġcolonel": 5275,
      "Ġretired": 5276,
      "ĠReg": 5277,
      "Ġcloser": 5278,
      "sighs": 5279,
      "etch": 5280,
      "ĠMel": 5281,
      "Ġprefer": 5282,
      "Ġopin": 5283,
      "Ġresearch": 5284,
      "$=": 5285,
      "DS": 5286,
      "Ġwha": 5287,
      "Ġpsy": 5288,
      "ented": 5289,
      "Ġdoors": 5290,
      "Ġune": 5291,
      "allas": 5292,
      "ĠBat": 5293,
      "Ġchanges": 5294,
      "liament": 5295,
      "Ġbegins": 5296,
      "Ġtitle": 5297,
      "Paul": 5298,
      "Su": 5299,
      "ĠDep": 5300,
      "Ġcrime": 5301,
      "Ġofficial": 5302,
      "Ġsuspect": 5303,
      "Ġrules": 5304,
      "Åį": 5305,
      "Ġpony": 5306,
      "Ġkitty": 5307,
      "ĠSarah": 5308,
      "Ġrout": 5309,
      "ĠGold": 5310,
      "Ġpoet": 5311,
      "Ġpossibly": 5312,
      "Ġrapid": 5313,
      "Ġcircumst": 5314,
      "TO": 5315,
      "care": 5316,
      "rin": 5317,
      "Ġboss": 5318,
      "isn": 5319,
      "ĠBert": 5320,
      "Ġprevent": 5321,
      "ograph": 5322,
      "Ġshower": 5323,
      "Ġwindows": 5324,
      "Ġdeveloped": 5325,
      "Ġstatement": 5326,
      "Ġevents": 5327,
      "ederal": 5328,
      "BC": 5329,
      "low": 5330,
      "hah": 5331,
      "athan": 5332,
      "imate": 5333,
      "amn": 5334,
      "icked": 5335,
      "Ġplayers": 5336,
      "Ġaircraft": 5337,
      "ITH": 5338,
      "Ġappearance": 5339,
      "ĠFlorida": 5340,
      "Ã¨": 5341,
      "abri": 5342,
      "ashington": 5343,
      "Ġrepeated": 5344,
      "lah": 5345,
      "asing": 5346,
      "Ġho": 5347,
      "ĠLi": 5348,
      "Ġordered": 5349,
      "berg": 5350,
      "ĠVirgin": 5351,
      "Ġbits": 5352,
      "Ġfinding": 5353,
      "Ġstaying": 5354,
      "gi": 5355,
      "try": 5356,
      "Ġaver": 5357,
      "onse": 5358,
      "Ġpair": 5359,
      "aling": 5360,
      "Ġforced": 5361,
      "ental": 5362,
      "Ġdoin": 5363,
      "uman": 5364,
      "ĠFoot": 5365,
      "ĠStone": 5366,
      "Ġleading": 5367,
      "ĠScott": 5368,
      "Cha": 5369,
      "ga": 5370,
      "Ġsoup": 5371,
      "anning": 5372,
      "Ġmeal": 5373,
      "âĢľâĢĺ": 5374,
      "Ġtroops": 5375,
      "Ġflag": 5376,
      "Isn": 5377,
      "Ġrocks": 5378,
      "Ġmedicine": 5379,
      "fa": 5380,
      "spect": 5381,
      "ĠSea": 5382,
      "Ġancient": 5383,
      "Ġmanager": 5384,
      "Ġwriter": 5385,
      "Ġresol": 5386,
      "Ġbloody": 5387,
      "ĠParis": 5388,
      "Ġcastle": 5389,
      "ĠMartin": 5390,
      "pen": 5391,
      "uf": 5392,
      "Ġtv": 5393,
      "iti": 5394,
      "isher": 5395,
      "Ġfold": 5396,
      "stood": 5397,
      "ĠPak": 5398,
      "ocks": 5399,
      "aws": 5400,
      "Ġknee": 5401,
      "Ġslightly": 5402,
      "Ġscarcely": 5403,
      "Ġenvironment": 5404,
      "bet": 5405,
      "ker": 5406,
      "little": 5407,
      "Ġaward": 5408,
      "enth": 5409,
      "ĠCome": 5410,
      "ishment": 5411,
      "Ġremind": 5412,
      "Ġshake": 5413,
      "Ġfeels": 5414,
      "Ġteams": 5415,
      "Ġsigned": 5416,
      "atory": 5417,
      "cean": 5418,
      "ores": 5419,
      "ĠTed": 5420,
      "hang": 5421,
      "ĠRy": 5422,
      "Ġexcit": 5423,
      "ĠAsian": 5424,
      "Ġappreci": 5425,
      "Ġavailable": 5426,
      "Fuck": 5427,
      "pet": 5428,
      "aled": 5429,
      "think": 5430,
      "bey": 5431,
      "ĠFriday": 5432,
      "Ġelected": 5433,
      "Ġpainting": 5434,
      "Steve": 5435,
      "Ġsuccessful": 5436,
      "Another": 5437,
      "Ġfoc": 5438,
      "ste": 5439,
      "ĠSing": 5440,
      "ĠThank": 5441,
      "ĠTucker": 5442,
      "Ġcarrying": 5443,
      "ANT": 5444,
      "pretend": 5445,
      "ĠMexico": 5446,
      "Ell": 5447,
      "rate": 5448,
      "Ġfishing": 5449,
      "ilian": 5450,
      "Ġneat": 5451,
      "ĠMarg": 5452,
      "Ġpulls": 5453,
      "Ġtelephone": 5454,
      "Ġfruit": 5455,
      "bow": 5456,
      "Ġtie": 5457,
      "itation": 5458,
      "Ġmail": 5459,
      "Ġknowledge": 5460,
      "acks": 5461,
      "ulous": 5462,
      "ĠLos": 5463,
      "Ġsposta": 5464,
      "Ġvessel": 5465,
      "Ġfavour": 5466,
      "fortun": 5467,
      "Ġcopy": 5468,
      "Bet": 5469,
      "otion": 5470,
      "ĠMil": 5471,
      "Ġwhist": 5472,
      "utenant": 5473,
      "Ġta": 5474,
      "Ġheaven": 5475,
      "Ġstre": 5476,
      "ĠMY": 5477,
      "ops": 5478,
      "ols": 5479,
      "Ġacting": 5480,
      "ĠChinese": 5481,
      "Still": 5482,
      "Ġsilent": 5483,
      "iety": 5484,
      "Ġdrinking": 5485,
      "only": 5486,
      "ĠAN": 5487,
      "Ġtraining": 5488,
      "Ġforgotten": 5489,
      "ĠRussian": 5490,
      "ĠRoyal": 5491,
      "Ġdetermined": 5492,
      "Put": 5493,
      "[.": 5494,
      "Ġtour": 5495,
      "Ġfought": 5496,
      "rost": 5497,
      "Ġplants": 5498,
      "Ġafford": 5499,
      "Ġchoo": 5500,
      "tained": 5501,
      "Ġrealize": 5502,
      "Ġsixty": 5503,
      "Ġdecide": 5504,
      "ekaboo": 5505,
      "Ġbin": 5506,
      "Ġfancy": 5507,
      "Ġassoci": 5508,
      "Ġbutt": 5509,
      "Ġtrade": 5510,
      "oking": 5511,
      "ĠThis": 5512,
      "rica": 5513,
      "Ġsuggested": 5514,
      "ĠRepublic": 5515,
      "Act": 5516,
      "Huh": 5517,
      "fat": 5518,
      "Ġcute": 5519,
      "Ġdom": 5520,
      "Ġdise": 5521,
      "tering": 5522,
      "Ġ2000": 5523,
      "ĠOne": 5524,
      "Ġslide": 5525,
      "Ġkeeps": 5526,
      "Ġ2004": 5527,
      "ĠGuy": 5528,
      "Ġblanket": 5529,
      "Ġetc": 5530,
      "Ġcred": 5531,
      "Ġorders": 5532,
      "place": 5533,
      "Ġpresence": 5534,
      "Ġobl": 5535,
      "Ġdolls": 5536,
      "Ġmemory": 5537,
      "ele": 5538,
      "mom": 5539,
      "ado": 5540,
      "ĠWE": 5541,
      "Ġmarry": 5542,
      "Ġrelated": 5543,
      "Ġknocked": 5544,
      "Ġburst": 5545,
      "Ġfond": 5546,
      "ĠAct": 5547,
      "uns": 5548,
      "ĠPet": 5549,
      "Ġsaf": 5550,
      "Ġfeelings": 5551,
      "Ġstops": 5552,
      "Ġ2003": 5553,
      "Ġextreme": 5554,
      "Ġmagic": 5555,
      "Ġresponse": 5556,
      "ĠCanad": 5557,
      "Ġholiday": 5558,
      "Ġoffered": 5559,
      "Ġyell": 5560,
      "Ġhomes": 5561,
      "ĠSummer": 5562,
      "ultan": 5563,
      "ĠFranc": 5564,
      "Ġarrange": 5565,
      "Ġrelationship": 5566,
      "Ġthee": 5567,
      "Ġbi": 5568,
      "Ġbike": 5569,
      "andy": 5570,
      "uments": 5571,
      "Ġthrown": 5572,
      "duced": 5573,
      "ĠWhite": 5574,
      "ĠCollege": 5575,
      "ule": 5576,
      "Ġhaha": 5577,
      "ĠIll": 5578,
      "Ġupset": 5579,
      "ĠStan": 5580,
      "whoa": 5581,
      "Ġbarn": 5582,
      "Ġpalace": 5583,
      "UST": 5584,
      "aa": 5585,
      "gn": 5586,
      "ses": 5587,
      "Ġmate": 5588,
      "Ġtoes": 5589,
      "Ġlake": 5590,
      "lend": 5591,
      "Ġrelease": 5592,
      "umn": 5593,
      "Ġdebut": 5594,
      "Ġuses": 5595,
      "action": 5596,
      "aving": 5597,
      "Ġprint": 5598,
      "Ġdragon": 5599,
      "Ġaware": 5600,
      "Ġrespond": 5601,
      "Ġhanging": 5602,
      "[$=": 5603,
      "Ġtid": 5604,
      "Ġpred": 5605,
      "kend": 5606,
      "ĠWhere": 5607,
      "ĠHE": 5608,
      "udd": 5609,
      "izza": 5610,
      "oger": 5611,
      "Ġkinds": 5612,
      "Ġcheek": 5613,
      "ESS": 5614,
      "Ġ1990": 5615,
      "Ġgrandma": 5616,
      "Ġrequire": 5617,
      "Amer": 5618,
      "RA": 5619,
      "eff": 5620,
      "yo": 5621,
      "Ġgang": 5622,
      "ĠCr": 5623,
      "ĠAT": 5624,
      "cel": 5625,
      "ĠBig": 5626,
      "olars": 5627,
      "Ġgreatest": 5628,
      "Ġgovernor": 5629,
      "Ġrecognized": 5630,
      "ĠChicago": 5631,
      "lahoma": 5632,
      "while": 5633,
      "isions": 5634,
      "ĠLab": 5635,
      "Ġshoulders": 5636,
      "ajest": 5637,
      "Something": 5638,
      "known": 5639,
      "Ġwan": 5640,
      "rible": 5641,
      "cho": 5642,
      "ila": 5643,
      "Ġprogress": 5644,
      "nee": 5645,
      "awa": 5646,
      "Ġ1980": 5647,
      "ĠOlympics": 5648,
      "Ġbatter": 5649,
      "Ġnarrow": 5650,
      "ĠTy": 5651,
      "Ġsports": 5652,
      "Ġpartner": 5653,
      "Ġthrowing": 5654,
      "Ġthoughts": 5655,
      "Ġstranger": 5656,
      "ĠAnne": 5657,
      "Ġexcitement": 5658,
      "ko": 5659,
      "ĠMic": 5660,
      "ĠLat": 5661,
      "Ġtrunk": 5662,
      "Ġvalue": 5663,
      "24": 5664,
      "Ġbare": 5665,
      "Ġdeck": 5666,
      "Ġlarger": 5667,
      "Everything": 5668,
      "Ġcrayons": 5669,
      "Ġnorthern": 5670,
      "According": 5671,
      "ban": 5672,
      "Ġ..": 5673,
      "Ġnovel": 5674,
      "ĠGreen": 5675,
      "ĠArk": 5676,
      "Ġmatters": 5677,
      "Ġmagn": 5678,
      "Ġremembered": 5679,
      "Today": 5680,
      "Ġmor": 5681,
      "Ġfurn": 5682,
      "Ġfully": 5683,
      "inky": 5684,
      "olic": 5685,
      "ĠJew": 5686,
      "Ġshowing": 5687,
      "Ġwaited": 5688,
      "Ġpatient": 5689,
      "nine": 5690,
      "ship": 5691,
      "Ġsite": 5692,
      "ĠMount": 5693,
      "ONE": 5694,
      "ĠGerald": 5695,
      "ĠOrder": 5696,
      "Ġneighbor": 5697,
      "giggles": 5698,
      "tw": 5699,
      "ĠJer": 5700,
      "Ġfourth": 5701,
      "ĠSpain": 5702,
      "Ġwitness": 5703,
      "Fl": 5704,
      "ILL": 5705,
      "Ġachie": 5706,
      "ingu": 5707,
      "ĠBest": 5708,
      "ĠDiv": 5709,
      "Ġexerc": 5710,
      "Ġ(;": 5711,
      "Ġeverywhere": 5712,
      "Ġprepar": 5713,
      "Ġdrama": 5714,
      "Ġdetect": 5715,
      "ĠJennie": 5716,
      "Ġnursery": 5717,
      "Ġmo": 5718,
      "Ġbend": 5719,
      "ĠBern": 5720,
      "ĠWashington": 5721,
      "Ġscreen": 5722,
      "Ġadminist": 5723,
      "Ġjudge": 5724,
      "ĠLucy": 5725,
      "Ġfrightened": 5726,
      "bing": 5727,
      "Ġsch": 5728,
      "ilities": 5729,
      "igan": 5730,
      "Ġamazing": 5731,
      "Ġcourage": 5732,
      "ĠColonel": 5733,
      "Ġescap": 5734,
      "Ġcompanion": 5735,
      "ĠOklahoma": 5736,
      "Over": 5737,
      "pha": 5738,
      "Ġfox": 5739,
      "road": 5740,
      "romer": 5741,
      "annah": 5742,
      "Ġburied": 5743,
      "Ġstudied": 5744,
      "uit": 5745,
      "Ġdying": 5746,
      "ata": 5747,
      "ĠDay": 5748,
      "ĠDick": 5749,
      "ĠHy": 5750,
      "high": 5751,
      "ĠVictor": 5752,
      "Ġsquee": 5753,
      "Didn": 5754,
      "Ġexplained": 5755,
      "ĠAngeles": 5756,
      "igsaw": 5757,
      "Ġmicrophone": 5758,
      "',": 5759,
      "after": 5760,
      "Ġsac": 5761,
      "ĠMonday": 5762,
      "Ġmere": 5763,
      "oles": 5764,
      "ĠOld": 5765,
      "Ġrob": 5766,
      "Ġsmiling": 5767,
      "Ġfrogs": 5768,
      "Ġestabl": 5769,
      "ault": 5770,
      "Ġcousin": 5771,
      "Ġpushed": 5772,
      "ĠCamp": 5773,
      "ĠAwards": 5774,
      "Ġserve": 5775,
      "Ġopens": 5776,
      "Ġinstant": 5777,
      "Ġquietly": 5778,
      "Again": 5779,
      "Ġ--": 5780,
      "icles": 5781,
      "chief": 5782,
      "ĠTown": 5783,
      "ĠNight": 5784,
      "ateg": 5785,
      "Ġqual": 5786,
      "HER": 5787,
      "lands": 5788,
      "Ġpassing": 5789,
      "apping": 5790,
      "Ġpowerful": 5791,
      "Ġdata": 5792,
      "Ġdirectly": 5793,
      "NOW": 5794,
      "Ã¤": 5795,
      "Ġbod": 5796,
      "Ġfile": 5797,
      "ĠCO": 5798,
      "Ġgoal": 5799,
      "ching": 5800,
      "ĠDav": 5801,
      "asty": 5802,
      "ĠNet": 5803,
      "Ġtrail": 5804,
      "azy": 5805,
      "Alright": 5806,
      "Ġsoftly": 5807,
      "ĠBay": 5808,
      "Ġgreater": 5809,
      "Ġsentence": 5810,
      "Ġreply": 5811,
      "III": 5812,
      "Ġzoo": 5813,
      "ĠAirport": 5814,
      "Ġwedding": 5815,
      "HO": 5816,
      "ients": 5817,
      "Ġfra": 5818,
      "ĠMike": 5819,
      "Ġroles": 5820,
      "ĠKat": 5821,
      "uclear": 5822,
      "inois": 5823,
      "Ġsafety": 5824,
      "fers": 5825,
      "mund": 5826,
      "year": 5827,
      "ĠThey": 5828,
      "oned": 5829,
      "inger": 5830,
      "Ġpra": 5831,
      "semb": 5832,
      "ĠTo": 5833,
      "Ġordin": 5834,
      "Ġ190": 5835,
      "Ġmission": 5836,
      "Ġplanning": 5837,
      "Ġconstruction": 5838,
      "eed": 5839,
      "Ġï¿½ï¿½ï¿½ï¿½": 5840,
      "Ġtim": 5841,
      "Ġbee": 5842,
      "Ġstir": 5843,
      "urance": 5844,
      "ĠAnt": 5845,
      "ĠFenn": 5846,
      "ĠOx": 5847,
      "ibility": 5848,
      "Ġbecoming": 5849,
      "Ġincludes": 5850,
      "Anne": 5851,
      "Ġaverage": 5852,
      "fle": 5853,
      "Ġbat": 5854,
      "ĠIr": 5855,
      "ĠBoy": 5856,
      "Ġplat": 5857,
      "apt": 5858,
      "Ġentertain": 5859,
      "Ġeighteen": 5860,
      "Ġprize": 5861,
      "Ġopinion": 5862,
      "ware": 5863,
      "ani": 5864,
      "astern": 5865,
      "Ġweird": 5866,
      "alley": 5867,
      "Ġrecently": 5868,
      "Ġadvant": 5869,
      "Ġrecognize": 5870,
      "Ġepisode": 5871,
      "Possum": 5872,
      "ĠVirginia": 5873,
      "Joe": 5874,
      "ials": 5875,
      "inary": 5876,
      "Ġgift": 5877,
      "aming": 5878,
      "ĠSim": 5879,
      "venue": 5880,
      "Ġ40": 5881,
      "Ġ1960": 5882,
      "Ġshopping": 5883,
      "Ġwhispered": 5884,
      "Ġexpression": 5885,
      "ĠAfrica": 5886,
      "iliar": 5887,
      "Early": 5888,
      "Lea": 5889,
      "from": 5890,
      "Ġwid": 5891,
      "Ġpour": 5892,
      "ĠMo": 5893,
      "ĠChild": 5894,
      "Ġshook": 5895,
      "HING": 5896,
      "Ġflo": 5897,
      "ĠZeal": 5898,
      "Ġformula": 5899,
      "Ġmainly": 5900,
      "fessor": 5901,
      "Sm": 5902,
      "boo": 5903,
      "Ġbrilliant": 5904,
      "abeth": 5905,
      "ĠTra": 5906,
      "ĠHay": 5907,
      "Ġballoon": 5908,
      "Ġdepart": 5909,
      "Ġevil": 5910,
      "Ġbowl": 5911,
      "ĠGovernor": 5912,
      "ĠGeorgia": 5913,
      "Call": 5914,
      "Mc": 5915,
      "six": 5916,
      "Ġess": 5917,
      "Ġbub": 5918,
      "Ġforms": 5919,
      "Ġsocks": 5920,
      "Ġshock": 5921,
      "ĠDallas": 5922,
      "ĠRight": 5923,
      "Ġsticks": 5924,
      "ĠCharlotte": 5925,
      "ĠScot": 5926,
      "?'": 5927,
      "Alexander": 5928,
      "En": 5929,
      "aed": 5930,
      "wan": 5931,
      "lla": 5932,
      "Ġhunt": 5933,
      "ential": 5934,
      "ĠMos": 5935,
      "ilchard": 5936,
      "Ġshel": 5937,
      "Ġrings": 5938,
      "Ġarg": 5939,
      "ishop": 5940,
      "ĠMayenne": 5941,
      "Ġmirror": 5942,
      "Ġturtle": 5943,
      "Ġcircumstances": 5944,
      "bie": 5945,
      "cream": 5946,
      "Ġsink": 5947,
      "Ġshell": 5948,
      "ulty": 5949,
      "Ġsplend": 5950,
      "Ġ[?": 5951,
      "Ġcarriage": 5952,
      "Ġcontr": 5953,
      "Ġ188": 5954,
      "Ġwondering": 5955,
      "ournament": 5956,
      "Ha": 5957,
      "yellow": 5958,
      "hew": 5959,
      "Ġcad": 5960,
      "Ġriding": 5961,
      "ĠTri": 5962,
      "ĠLake": 5963,
      "useum": 5964,
      "ontin": 5965,
      "Ġweekend": 5966,
      "Ġairplane": 5967,
      "ĠĠĠĠĠĠĠĠĠĠĠĠĠĠĠĠĠĠĠĠĠĠĠĠ": 5968,
      "Ġpapa": 5969,
      "ĠIllinois": 5970,
      "mark": 5971,
      "Ġder": 5972,
      "ros": 5973,
      "Ġtractor": 5974,
      "Ġ31": 5975,
      "Ġmarriage": 5976,
      "Ġlanguages": 5977,
      "Ġproperty": 5978,
      "IV": 5979,
      "ugh": 5980,
      "ube": 5981,
      "heast": 5982,
      "Ġwow": 5983,
      "Ġscience": 5984,
      "Ġfuss": 5985,
      "icans": 5986,
      "ĠSus": 5987,
      "ĠDel": 5988,
      "icking": 5989,
      "Ġqueer": 5990,
      "Ġdesper": 5991,
      "Ġ2002": 5992,
      "Ġbeauty": 5993,
      "Ġreceive": 5994,
      "Ġfailed": 5995,
      "Ġtarget": 5996,
      "Ġestablished": 5997,
      "nice": 5998,
      "uous": 5999,
      "isse": 6000,
      "Ġcy": 6001,
      "Ġmale": 6002,
      "Ġoo": 6003,
      "Ġinno": 6004,
      "Ġinternational": 6005,
      "ĠHAVE": 6006,
      "Ġbiggest": 6007,
      "Ġdepend": 6008,
      "Ġveh": 6009,
      "Ġshouted": 6010,
      "Ġseparate": 6011,
      "tin": 6012,
      "Ġyards": 6013,
      "Ġpow": 6014,
      "ĠCatherine": 6015,
      "Ġselected": 6016,
      "ĠAlden": 6017,
      "Ġplastic": 6018,
      "ĠLaura": 6019,
      "Ġbranch": 6020,
      "Ġcooking": 6021,
      "inter": 6022,
      "Ġwave": 6023,
      "Ġsore": 6024,
      "Ġfal": 6025,
      "Ġgently": 6026,
      "Ġreasons": 6027,
      "Ġnative": 6028,
      "ams": 6029,
      "Ġaside": 6030,
      "Ġprove": 6031,
      "Ġfarmer": 6032,
      "Ġjobs": 6033,
      "Ġpressure": 6034,
      "Ġcurrently": 6035,
      "Ġperformance": 6036,
      "EE": 6037,
      "Eve": 6038,
      "Tilda": 6039,
      "vin": 6040,
      "Ã¶": 6041,
      "ĠSl": 6042,
      "iffe": 6043,
      "ulated": 6044,
      "ĠHaw": 6045,
      "Ġboats": 6046,
      "Ġagent": 6047,
      "azed": 6048,
      "Ġtribe": 6049,
      "gypt": 6050,
      "ĠKingdom": 6051,
      "whispers": 6052,
      "Ġperformed": 6053,
      "ĠTHIS": 6054,
      "draw": 6055,
      "vis": 6056,
      "Ġwished": 6057,
      "itar": 6058,
      "Ġthy": 6059,
      "vert": 6060,
      "ĠMur": 6061,
      "Ġsection": 6062,
      "eping": 6063,
      "Ġadvice": 6064,
      "Ġdreams": 6065,
      "Ġelectric": 6066,
      "ĠChampionship": 6067,
      "ĠBraz": 6068,
      "Ġmagazine": 6069,
      "22": 6070,
      "OH": 6071,
      "dr": 6072,
      "rig": 6073,
      "Ġsees": 6074,
      "ellig": 6075,
      "ĠLee": 6076,
      "Ġremoved": 6077,
      "Ġcontain": 6078,
      "Ġinterview": 6079,
      "Ġ1970": 6080,
      "Ġnormally": 6081,
      "Ġdunno": 6082,
      "Ġaim": 6083,
      "Ġhurried": 6084,
      "playing": 6085,
      "Ġrequest": 6086,
      "Ġtotally": 6087,
      "Ġfrequ": 6088,
      ",]": 6089,
      "lp": 6090,
      "push": 6091,
      "orse": 6092,
      "ĠCourt": 6093,
      "ulations": 6094,
      "ĠHER": 6095,
      "Ġvoices": 6096,
      "Ġengaged": 6097,
      "Ġdescribed": 6098,
      "Ġentirely": 6099,
      "ĠArkansas": 6100,
      "green": 6101,
      "Ġhook": 6102,
      "ooke": 6103,
      "Ġdism": 6104,
      "Ġ2001": 6105,
      "Ġterrit": 6106,
      "Ġcentral": 6107,
      "scream": 6108,
      "Ġdisappeared": 6109,
      "Ġfortune": 6110,
      "Ġhighest": 6111,
      "ĠItaly": 6112,
      "Both": 6113,
      "Mag": 6114,
      "Ġodd": 6115,
      "Ġthin": 6116,
      "ĠRock": 6117,
      "ousers": 6118,
      "iano": 6119,
      "Ġchampions": 6120,
      "Ġexciting": 6121,
      "Ġartist": 6122,
      "Ġresults": 6123,
      "Ġtradition": 6124,
      "Ġindividual": 6125,
      "aft": 6126,
      "war": 6127,
      "Ġsouthern": 6128,
      "Ġpale": 6129,
      "Ġinha": 6130,
      "ette": 6131,
      "Ġstom": 6132,
      "Ġjail": 6133,
      "ĠDutch": 6134,
      "Ġactive": 6135,
      "ĠBecky": 6136,
      "Ġmatches": 6137,
      "ĠDemocratic": 6138,
      "90": 6139,
      "Ros": 6140,
      "dro": 6141,
      "press": 6142,
      "wa": 6143,
      "Ġfac": 6144,
      "opher": 6145,
      "osen": 6146,
      "Ġotherwise": 6147,
      "anged": 6148,
      "Ġeaten": 6149,
      "Ġmetal": 6150,
      "Ġwheels": 6151,
      "Ġmedical": 6152,
      "Ġincrease": 6153,
      "anchester": 6154,
      "\"?": 6155,
      "Bes": 6156,
      "itiz": 6157,
      "Ġmummy": 6158,
      "Ġpatter": 6159,
      "ications": 6160,
      "ĠSun": 6161,
      "ilies": 6162,
      "Ġjoke": 6163,
      "ĠPre": 6164,
      "ĠLO": 6165,
      "Ġthrows": 6166,
      "Ġadop": 6167,
      "Ġunderstood": 6168,
      "Ġcrash": 6169,
      "ĠRussia": 6170,
      "Mad": 6171,
      "Ġtur": 6172,
      "Ġwine": 6173,
      "Ġyo": 6174,
      "Ġghost": 6175,
      "amily": 6176,
      "Ġkm": 6177,
      "ands": 6178,
      "ĠSaint": 6179,
      "ĠArab": 6180,
      "umbo": 6181,
      "geant": 6182,
      "Ġsomehow": 6183,
      "Ġsmiled": 6184,
      "Ġchest": 6185,
      "Ġentr": 6186,
      "unts": 6187,
      "Ġdrops": 6188,
      "Ġbaseball": 6189,
      "Ġnewspaper": 6190,
      "Ġdamn": 6191,
      "IA": 6192,
      "Ġgat": 6193,
      "nothing": 6194,
      "ali": 6195,
      "ading": 6196,
      "amma": 6197,
      "ĠRuth": 6198,
      "ĠEarth": 6199,
      "âĢĿ.": 6200,
      "Ġhelps": 6201,
      "puts": 6202,
      "ĠArmy": 6203,
      "Ġtransfer": 6204,
      "Ġpositive": 6205,
      "Ġconstit": 6206,
      "Ġdamage": 6207,
      "ĠZealand": 6208,
      "ridge": 6209,
      "sung": 6210,
      "uzz": 6211,
      "eta": 6212,
      "ĠCom": 6213,
      "ĠCast": 6214,
      "ctors": 6215,
      "umble": 6216,
      "eme": 6217,
      "Ġfriendly": 6218,
      "Ġpaying": 6219,
      "ĠAfrican": 6220,
      "Ġcruel": 6221,
      "ajesty": 6222,
      "Ġmouse": 6223,
      "oto": 6224,
      "herry": 6225,
      "ĠSel": 6226,
      "ĠRem": 6227,
      "ĠEgypt": 6228,
      "Ġgentlemen": 6229,
      "Ġautom": 6230,
      "Ġtouched": 6231,
      "ĠWindows": 6232,
      "Ġideas": 6233,
      "iece": 6234,
      "Ġvot": 6235,
      "Ġscore": 6236,
      "Ġcommittee": 6237,
      "Ġglance": 6238,
      "Ġsignific": 6239,
      "Ġstudents": 6240,
      "Ġprovide": 6241,
      "Ġissues": 6242,
      "Ġgradu": 6243,
      "ĠMargaret": 6244,
      "aeddin": 6245,
      "Com": 6246,
      "gent": 6247,
      "squ": 6248,
      "isha": 6249,
      "ĠMaster": 6250,
      "Ġjigsaw": 6251,
      "ĠĠĠ": 6252,
      "Ġparticip": 6253,
      "izabeth": 6254,
      "Ġtalks": 6255,
      "Ġdesire": 6256,
      "Ġprovided": 6257,
      "Ġforever": 6258,
      "Ġveget": 6259,
      "Ġresponsible": 6260,
      "ĠRoad": 6261,
      "nology": 6262,
      "ĠFootball": 6263,
      "Later": 6264,
      "Nice": 6265,
      "walk": 6266,
      "Ġmort": 6267,
      "Ġpil": 6268,
      "Ġhesit": 6269,
      "Ġdrawn": 6270,
      "Ġfairy": 6271,
      "Christ": 6272,
      "Ġinfluence": 6273,
      "ĠProvince": 6274,
      "MAN": 6275,
      "gency": 6276,
      "Â¶": 6277,
      "icing": 6278,
      "usted": 6279,
      "ĠPolly": 6280,
      "Nobody": 6281,
      "Ġends": 6282,
      "EST": 6283,
      "Ġreplaced": 6284,
      "Ġbeneath": 6285,
      "Dada": 6286,
      "Ġpump": 6287,
      "Ġge": 6288,
      "Ġnation": 6289,
      "Ġsole": 6290,
      "ĠJud": 6291,
      "ĠNOT": 6292,
      "Ġadult": 6293,
      "ĠCla": 6294,
      "ĠBritain": 6295,
      "Ġoccurred": 6296,
      "Ġreckon": 6297,
      "cr": 6298,
      "vest": 6299,
      "Ġwipe": 6300,
      "amin": 6301,
      "alled": 6302,
      "olan": 6303,
      "ĠJess": 6304,
      "Ġsecurity": 6305,
      "Ġslave": 6306,
      "Ġattend": 6307,
      "Ġdrunk": 6308,
      "Ġfamiliar": 6309,
      "Ġterror": 6310,
      "Ġcharacters": 6311,
      "Ġmountains": 6312,
      "Ġauthority": 6313,
      "Poor": 6314,
      "ĠÃ": 6315,
      "Ġnut": 6316,
      "riff": 6317,
      "Ġliber": 6318,
      "thur": 6319,
      "ĠTH": 6320,
      "ĠRes": 6321,
      "Ġinstr": 6322,
      "Ġfolks": 6323,
      "UCK": 6324,
      "law": 6325,
      "pot": 6326,
      "talk": 6327,
      "ĠCH": 6328,
      "ilty": 6329,
      "ĠDis": 6330,
      "ongrat": 6331,
      "eps": 6332,
      "Ġdegree": 6333,
      "American": 6334,
      "Ġgathered": 6335,
      "Ã±": 6336,
      "eral": 6337,
      "ĠBur": 6338,
      "ĠGreek": 6339,
      "ĠNat": 6340,
      "ĠEmp": 6341,
      "Ġapparently": 6342,
      "ĠYour": 6343,
      "brary": 6344,
      "together": 6345,
      "Ġenjoyed": 6346,
      "Ġdisease": 6347,
      "21": 6348,
      "morrow": 6349,
      "pir": 6350,
      "pull": 6351,
      "yay": 6352,
      "Ġbisc": 6353,
      "Ġfaint": 6354,
      "Ġtooth": 6355,
      "Ġpant": 6356,
      "Ġloose": 6357,
      "Ġreve": 6358,
      "ĠBO": 6359,
      "throw": 6360,
      "hib": 6361,
      "Ġsweetheart": 6362,
      "Ġweapons": 6363,
      "ĠSecretary": 6364,
      "Ġoblig": 6365,
      "40": 6366,
      "War": 6367,
      "picks": 6368,
      "oura": 6369,
      "Ġwore": 6370,
      "Ġfan": 6371,
      "ĠDar": 6372,
      "ĠLara": 6373,
      "inda": 6374,
      "oston": 6375,
      "Ġjumped": 6376,
      "Ġspecific": 6377,
      "iffs": 6378,
      "Ġnearer": 6379,
      "cow": 6380,
      "sque": 6381,
      "Ġtummy": 6382,
      "Ġpor": 6383,
      "Ġitems": 6384,
      "Ġstones": 6385,
      "ĠBull": 6386,
      "Ġshooting": 6387,
      "ĠWolf": 6388,
      "Ġarch": 6389,
      "ocr": 6390,
      "ĠBrown": 6391,
      "OULD": 6392,
      "Ġinstru": 6393,
      "Ġpossess": 6394,
      "Ġstepped": 6395,
      "ĠCenter": 6396,
      "Ġdestroyed": 6397,
      "Ġchemical": 6398,
      "NO": 6399,
      "lock": 6400,
      "ught": 6401,
      "Ġfart": 6402,
      "entworth": 6403,
      "ĠMax": 6404,
      "Ġmel": 6405,
      "ĠSal": 6406,
      "ĠSov": 6407,
      "ĠHim": 6408,
      "were": 6409,
      "Ġamb": 6410,
      "Think": 6411,
      "Adam": 6412,
      "Ġweapon": 6413,
      "points": 6414,
      "Cause": 6415,
      "MP": 6416,
      "Ġbump": 6417,
      "Ġcam": 6418,
      "ĠTim": 6419,
      "ĠVan": 6420,
      "Ġuseful": 6421,
      "Ġ1994": 6422,
      "Ġinvited": 6423,
      "ointment": 6424,
      "engu": 6425,
      "ological": 6426,
      "ĠAssoci": 6427,
      "iamond": 6428,
      "Ġsoldier": 6429,
      "Ġtickle": 6430,
      "Ġburning": 6431,
      "ĠSanta": 6432,
      "Ġexecut": 6433,
      "AB": 6434,
      "El": 6435,
      "Fine": 6436,
      "hun": 6437,
      "po": 6438,
      "Ġdim": 6439,
      "aring": 6440,
      "Ġinvent": 6441,
      "ĠMill": 6442,
      "Ġlies": 6443,
      "Ġsuffe": 6444,
      "agu": 6445,
      "ondisse": 6446,
      "Ġcoal": 6447,
      "Ġpropos": 6448,
      "remember": 6449,
      "Ġfier": 6450,
      "ĠPri": 6451,
      "Ġsaving": 6452,
      "ĠDolly": 6453,
      "ĠHal": 6454,
      "goes": 6455,
      "Ġeastern": 6456,
      "Ġlearning": 6457,
      "ĠYOUR": 6458,
      "--------------------------------": 6459,
      "Ġgarage": 6460,
      "Up": 6461,
      "long": 6462,
      "Ġtied": 6463,
      "Ġhabit": 6464,
      "Ġforgive": 6465,
      "ĠBible": 6466,
      "estival": 6467,
      "ĠOn": 6468,
      "weet": 6469,
      "Ġchosen": 6470,
      "Ġbitch": 6471,
      "igned": 6472,
      "Ġhearing": 6473,
      "Ġhorrible": 6474,
      "Ġdrove": 6475,
      "Ġcookies": 6476,
      "Ġlifted": 6477,
      "Ġearnest": 6478,
      "ĠFrancis": 6479,
      "Ġordinary": 6480,
      "Ġstomach": 6481,
      "Lara": 6482,
      "rec": 6483,
      "had": 6484,
      "Ġgir": 6485,
      "Ġgather": 6486,
      "Ġlone": 6487,
      "umm": 6488,
      "Ġspill": 6489,
      "Ġvent": 6490,
      "Ġgrate": 6491,
      "Ġwarri": 6492,
      "shouts": 6493,
      "Ġ1995": 6494,
      "Ġ1997": 6495,
      "Ġmusical": 6496,
      "Ġclosely": 6497,
      "Shut": 6498,
      "ournal": 6499,
      "Ġfired": 6500,
      "Ġyard": 6501,
      "esota": 6502,
      "Ġhorn": 6503,
      "keys": 6504,
      "Ġsociety": 6505,
      "ability": 6506,
      "Ġrushed": 6507,
      "Ġ1996": 6508,
      "Ġapproach": 6509,
      "ĠProfessor": 6510,
      "Ġobserved": 6511,
      "Ġarrested": 6512,
      "Ġcurious": 6513,
      "AIN": 6514,
      "Luc": 6515,
      "Te": 6516,
      "Ġfant": 6517,
      "Ġbeast": 6518,
      "imme": 6519,
      "ĠSqu": 6520,
      "ĠSultan": 6521,
      "Ġrank": 6522,
      "Ġrush": 6523,
      "Ġcomedy": 6524,
      "Ġrare": 6525,
      "Ġowner": 6526,
      "ĠMission": 6527,
      "Ġcutting": 6528,
      "ĠHarold": 6529,
      "Ġaccepted": 6530,
      "Ġgalley": 6531,
      "ĠAtl": 6532,
      "Ġmaterial": 6533,
      "ĠCanadian": 6534,
      "\"]": 6535,
      "Each": 6536,
      "bon": 6537,
      "fin": 6538,
      "Ġdust": 6539,
      "Ġfreed": 6540,
      "llen": 6541,
      "rog": 6542,
      "ĠMi": 6543,
      "ĠAlex": 6544,
      "Ġshr": 6545,
      "ĠEli": 6546,
      "onder": 6547,
      "hards": 6548,
      "ilet": 6549,
      "Ġcomplet": 6550,
      "ĠChief": 6551,
      "Ġboxes": 6552,
      "Ġdarkness": 6553,
      "Ġtypes": 6554,
      "Should": 6555,
      "aspberry": 6556,
      "ĠMinnesota": 6557,
      "bel": 6558,
      "too": 6559,
      "Ġcash": 6560,
      "Ġpad": 6561,
      "Ġpizza": 6562,
      "Ġgodd": 6563,
      "Ġswitch": 6564,
      "Ġacid": 6565,
      "Ġ1999": 6566,
      "ARD": 6567,
      "Ġdelicious": 6568,
      "ĠTurk": 6569,
      "25": 6570,
      "Ġpile": 6571,
      "Ġlack": 6572,
      "stead": 6573,
      "umps": 6574,
      "odes": 6575,
      "Ġproced": 6576,
      "ERS": 6577,
      "ĠAlaeddin": 6578,
      "ĠArt": 6579,
      "ception": 6580,
      "arring": 6581,
      "Ġfailure": 6582,
      "Love": 6583,
      "lers": 6584,
      "Ġcas": 6585,
      "Ġfacing": 6586,
      "Ġgained": 6587,
      "ammy": 6588,
      "ĠCongress": 6589,
      "ĠHis": 6590,
      "ichigan": 6591,
      "ivity": 6592,
      "Ġthroughout": 6593,
      "Ġminor": 6594,
      "Ġhighly": 6595,
      "Ġkidding": 6596,
      "Ġreported": 6597,
      "Ġintrodu": 6598,
      "eight": 6599,
      "Ġbark": 6600,
      "Ġbones": 6601,
      "Ġpages": 6602,
      "usic": 6603,
      "ĠMu": 6604,
      "ĠAh": 6605,
      "ĠFil": 6606,
      "Ġexcellent": 6607,
      "Ġtrousers": 6608,
      "Ġguilty": 6609,
      "Ġshame": 6610,
      "Ġraise": 6611,
      "anches": 6612,
      "Ġowned": 6613,
      "Ġincident": 6614,
      "Ġequip": 6615,
      "Ġdesigned": 6616,
      "ĠOlympic": 6617,
      "Ġdocument": 6618,
      "cat": 6619,
      "rant": 6620,
      "Ġsen": 6621,
      "enced": 6622,
      "Ġlord": 6623,
      "ĠSa": 6624,
      "ĠWentworth": 6625,
      "ĠKansas": 6626,
      "Ġsmooth": 6627,
      "Ġcraft": 6628,
      "Ġtransport": 6629,
      "ĠBarry": 6630,
      "ĠBradley": 6631,
      "Ġcreate": 6632,
      "Ġintroduced": 6633,
      "Ġbodies": 6634,
      "Ġsplendid": 6635,
      "60": 6636,
      "HL": 6637,
      "mond": 6638,
      "Ġtoss": 6639,
      "gel": 6640,
      "emies": 6641,
      ".\"]": 6642,
      "hmm": 6643,
      "gging": 6644,
      "Ġcrim": 6645,
      "Ġcontribut": 6646,
      "Ġchanging": 6647,
      "Ġpoliceman": 6648,
      "views": 6649,
      "kisses": 6650,
      "Ġboots": 6651,
      "Actually": 6652,
      "Little": 6653,
      "XP": 6654,
      "iest": 6655,
      "mot": 6656,
      "ĠThere": 6657,
      "Ġtough": 6658,
      "Ġtip": 6659,
      "ĠWomen": 6660,
      "ĠEr": 6661,
      "Ġpron": 6662,
      "Ġcompos": 6663,
      "Donald": 6664,
      "Ġchairs": 6665,
      "ennis": 6666,
      "Ġjacket": 6667,
      "Ġcompetition": 6668,
      "Ġtechn": 6669,
      "Ġadvantage": 6670,
      "bal": 6671,
      "lim": 6672,
      "Ġpic": 6673,
      "Ġnerv": 6674,
      "rier": 6675,
      "ĠBa": 6676,
      "ĠPh": 6677,
      "about": 6678,
      "ĠFanning": 6679,
      "Ġbreaking": 6680,
      "Ġbadly": 6681,
      "priate": 6682,
      "ĠPrince": 6683,
      "ropical": 6684,
      "Ġstrike": 6685,
      "ĠPakistan": 6686,
      "Ġtal": 6687,
      "Ġtear": 6688,
      "ouds": 6689,
      "Ġcitiz": 6690,
      "Ġgor": 6691,
      "ĠMass": 6692,
      "ĠMajor": 6693,
      "Ġsem": 6694,
      "gend": 6695,
      "ĠTw": 6696,
      "Ġsport": 6697,
      "Ġconcent": 6698,
      "Ġcovers": 6699,
      "ĠVal": 6700,
      "Ġpicking": 6701,
      "Ġ1992": 6702,
      "Ġmethod": 6703,
      "ĠPatty": 6704,
      "onia": 6705,
      "Ġmap": 6706,
      "Ġfaster": 6707,
      "Ġwashing": 6708,
      "rol": 6709,
      "ĠPan": 6710,
      "ĠHill": 6711,
      "Ġconce": 6712,
      "uchi": 6713,
      "Ġslipp": 6714,
      "Ġincred": 6715,
      "Ġdifficulty": 6716,
      "Ġinterrupts": 6717,
      "bury": 6718,
      "sa": 6719,
      "sl": 6720,
      "Ġcave": 6721,
      "Ġcats": 6722,
      "Ġmile": 6723,
      "ĠBoston": 6724,
      "umed": 6725,
      "Ġquit": 6726,
      "Ġfamilies": 6727,
      "Ġrealized": 6728,
      "Ġtribes": 6729,
      "Ġsignal": 6730,
      "Ġpulling": 6731,
      "Ġrecords": 6732,
      "ĠSwed": 6733,
      "Ġprogramme": 6734,
      "Ġactivity": 6735,
      "ĠMatthew": 6736,
      "Ġsprang": 6737,
      "Ġelder": 6738,
      "Besides": 6739,
      "April": 6740,
      "Ġtournament": 6741,
      "Ġwoof": 6742,
      "Ġpushing": 6743,
      "Ġlem": 6744,
      "icop": 6745,
      "Ġliqu": 6746,
      "ĠALL": 6747,
      "ĠLin": 6748,
      "Ġpeas": 6749,
      "ĠUk": 6750,
      "Thomas": 6751,
      "Ġrestaur": 6752,
      "Also": 6753,
      "bbed": 6754,
      "Ġdivor": 6755,
      "eks": 6756,
      "hus": 6757,
      "reck": 6758,
      "Ġdiss": 6759,
      "Ġyum": 6760,
      "ĠDa": 6761,
      "ĠWITH": 6762,
      "Ġseek": 6763,
      "Ġtruly": 6764,
      "Ġbricks": 6765,
      "ĠStep": 6766,
      "Ġuniversity": 6767,
      "Ġresour": 6768,
      "Ġdrown": 6769,
      "Ġlistened": 6770,
      "Ġ1998": 6771,
      "Ġhurts": 6772,
      "ĠPrime": 6773,
      "Ġcandy": 6774,
      "ĠJimmy": 6775,
      "ĠGreater": 6776,
      "Ġsuffered": 6777,
      "gt": 6778,
      "ias": 6779,
      "ios": 6780,
      "enger": 6781,
      "arl": 6782,
      "sell": 6783,
      "Ġstol": 6784,
      "ĠMichigan": 6785,
      "ĠCross": 6786,
      "Ġrise": 6787,
      "Ġsav": 6788,
      "ĠDid": 6789,
      "Ġstring": 6790,
      "engers": 6791,
      "Ġcircus": 6792,
      "ĠCentral": 6793,
      "ĠAustralian": 6794,
      "OS": 6795,
      "ĠNed": 6796,
      "angers": 6797,
      "Ġminister": 6798,
      "standing": 6799,
      "Ġgiant": 6800,
      "Ġprotest": 6801,
      "ĠCommittee": 6802,
      "Ġdrugs": 6803,
      "Fin": 6804,
      "Ġsang": 6805,
      "erable": 6806,
      "Ġbone": 6807,
      "Ġfence": 6808,
      "Ġnuts": 6809,
      "Ġsevere": 6810,
      "Ġupper": 6811,
      "Ġcommer": 6812,
      "ĠUrs": 6813,
      "fecture": 6814,
      "Ġrolling": 6815,
      "Ġapartment": 6816,
      "Ġwounded": 6817,
      "Ġcredit": 6818,
      "ĠOxford": 6819,
      "IG": 6820,
      "aith": 6821,
      "bro": 6822,
      "pur": 6823,
      "Ġaid": 6824,
      "Ġwra": 6825,
      "sters": 6826,
      "ĠGar": 6827,
      "ĠRoger": 6828,
      "Ġintended": 6829,
      "wey": 6830,
      "ĠĠĠĠĠĠĠĠĠĠĠĠĠĠĠĠĠĠĠĠĠĠĠĠĠĠĠĠĠĠĠĠ": 6831,
      "Next": 6832,
      "Father": 6833,
      "Har": 6834,
      "num": 6835,
      "ties": 6836,
      "Ġborder": 6837,
      "ĠMet": 6838,
      "ĠBrian": 6839,
      "ĠLie": 6840,
      "Ġeats": 6841,
      "Ġaccess": 6842,
      "ï¿½ï¿½ï¿½": 6843,
      "Ġdelay": 6844,
      "byebye": 6845,
      "Ġcrossed": 6846,
      "Ġequal": 6847,
      "ealous": 6848,
      "ĠSoviet": 6849,
      "Ġgain": 6850,
      "unning": 6851,
      "Ġspo": 6852,
      "Ġimit": 6853,
      "Ġleague": 6854,
      "Ġseriously": 6855,
      "Ġsurely": 6856,
      "----\"": 6857,
      "mpat": 6858,
      "Ġstandard": 6859,
      "aze": 6860,
      "Ġhearts": 6861,
      "198": 6862,
      "Ġladder": 6863,
      "Ġhonour": 6864,
      "Ġcaptured": 6865,
      "Ġsettlement": 6866,
      "Ġindustry": 6867,
      "bling": 6868,
      "amie": 6869,
      "ĠCromer": 6870,
      "ĠSouthern": 6871,
      "olph": 6872,
      "ĠWestern": 6873,
      "Ġspare": 6874,
      "Stay": 6875,
      "Ġtrial": 6876,
      "Ġcloth": 6877,
      "Ġholes": 6878,
      "Ġslept": 6879,
      "Ġfeatures": 6880,
      "abriella": 6881,
      "Ġequipment": 6882,
      "23": 6883,
      "Ge": 6884,
      "Such": 6885,
      "pop": 6886,
      "sk": 6887,
      "Ġwaves": 6888,
      "Ġcongress": 6889,
      "Ġpup": 6890,
      "Ġgay": 6891,
      "rial": 6892,
      "Help": 6893,
      "ĠTer": 6894,
      "ĠFre": 6895,
      "ĠRush": 6896,
      "ĠNE": 6897,
      "Ġdisp": 6898,
      "Ġsmiles": 6899,
      "Ġactual": 6900,
      "Ġappointed": 6901,
      "Ġregret": 6902,
      "ĠEdward": 6903,
      "Ġsweetie": 6904,
      "Ġsending": 6905,
      "Everyone": 6906,
      "Ġproposed": 6907,
      "Ġlocked": 6908,
      "Ġhasta": 6909,
      "Ġsplit": 6910,
      "Remember": 6911,
      "||": 6912,
      "Ġtoilet": 6913,
      "Ġrhy": 6914,
      "ĠFrost": 6915,
      "Ġconsequ": 6916,
      "odd": 6917,
      "reeks": 6918,
      "Ġpoison": 6919,
      "Ġunus": 6920,
      "Ġkindly": 6921,
      "Ġrecording": 6922,
      "Ġapolog": 6923,
      "Ġavoid": 6924,
      "Ġbesides": 6925,
      "Ġprincess": 6926,
      "Ġefforts": 6927,
      "ĠSuper": 6928,
      "ĠKorea": 6929,
      "\"'": 6930,
      "Last": 6931,
      "UL": 6932,
      "rough": 6933,
      "Ġaston": 6934,
      "Ġwinning": 6935,
      "uma": 6936,
      "...\"": 6937,
      "Ġbrings": 6938,
      "iana": 6939,
      "Ġdishes": 6940,
      "uced": 6941,
      "Ġtrains": 6942,
      "Ġpresently": 6943,
      "Ġmadam": 6944,
      "Ġproduction": 6945,
      "ĠMexican": 6946,
      "Ġstreets": 6947,
      "Ġmama": 6948,
      "Ġdwell": 6949,
      "Ġfoll": 6950,
      "Ġhidden": 6951,
      "Ġstern": 6952,
      "Ġmeas": 6953,
      "ĠCath": 6954,
      "elcome": 6955,
      "ĠLight": 6956,
      "ĠWood": 6957,
      "Ġgreatly": 6958,
      "Ġchain": 6959,
      "Ġsigns": 6960,
      "Ġbuildings": 6961,
      "Ġplanned": 6962,
      "Ġlads": 6963,
      "Ġcompanies": 6964,
      "Ġcandid": 6965,
      "Ġaffair": 6966,
      "addressed": 6967,
      "ĠRamsey": 6968,
      "Captain": 6969,
      "met": 6970,
      "Ġast": 6971,
      "Ġtheory": 6972,
      "Ġborrow": 6973,
      "Ġcough": 6974,
      "Ġnic": 6975,
      "lyn": 6976,
      "eable": 6977,
      "ĠBon": 6978,
      "rael": 6979,
      "Ġroot": 6980,
      "quar": 6981,
      "Ġbranches": 6982,
      "Ġenemies": 6983,
      "Ġrooms": 6984,
      "Ġharder": 6985,
      "Ġkilling": 6986,
      "ART": 6987,
      "ĠEdmund": 6988,
      "Whoa": 6989,
      "Ġkissed": 6990,
      "ĠRepresent": 6991,
      "Ġtreated": 6992,
      "ĠRepublican": 6993,
      "Ġnominated": 6994,
      "Ġbalance": 6995,
      "Ġsource": 6996,
      "Ġappreciate": 6997,
      "ĠDavis": 6998,
      "zer": 6999,
      "Å«": 7000,
      "Ġaunt": 7001,
      "nope": 7002,
      "Ġhen": 7003,
      "Ġanti": 7004,
      "Ġsuck": 7005,
      "lfriend": 7006,
      "Ġcloud": 7007,
      "ialect": 7008,
      "Ġours": 7009,
      "Ġcrown": 7010,
      "Ġresist": 7011,
      "ailed": 7012,
      "ĠAmericans": 7013,
      "Ġrecorder": 7014,
      "Ġrecorded": 7015,
      "Ġpuppy": 7016,
      "ĠGrandma": 7017,
      "Ġvictory": 7018,
      "Ġmixed": 7019,
      "Ġdistributed": 7020,
      "Jwww": 7021,
      "Out": 7022,
      "Sit": 7023,
      "cod": 7024,
      "corn": 7025,
      "Ġhockey": 7026,
      "ĠServ": 7027,
      "Ġath": 7028,
      "ĠDE": 7029,
      "ĠLove": 7030,
      "Ġprecious": 7031,
      "Ġhousehold": 7032,
      "ĠAnn": 7033,
      "whispered": 7034,
      "Ġmajority": 7035,
      "Ġcompanions": 7036,
      "Ġflew": 7037,
      "1999": 7038,
      "ĠCasson": 7039,
      "careful": 7040,
      "Ġplatform": 7041,
      "Leave": 7042,
      "RY": 7043,
      "aunt": 7044,
      "bour": 7045,
      "sw": 7046,
      "win": 7047,
      "Ġdoo": 7048,
      "ano": 7049,
      "new": 7050,
      "Ġguest": 7051,
      "Ġdeser": 7052,
      "Ġsword": 7053,
      "Ġwondered": 7054,
      "Ġdolly": 7055,
      "Ġpursu": 7056,
      "ippi": 7057,
      "Ġrolls": 7058,
      "Ġproduce": 7059,
      "Ġbriefly": 7060,
      "Ġrapidly": 7061,
      "Ġlonely": 7062,
      "Under": 7063,
      "found": 7064,
      "overy": 7065,
      "Ġwire": 7066,
      "Ġwashed": 7067,
      "seven": 7068,
      "Ġjealous": 7069,
      "Ġupside": 7070,
      "Ġspeaks": 7071,
      "ĠKim": 7072,
      "ĠKNOW": 7073,
      "Ġleans": 7074,
      "Ġcarr": 7075,
      "Ġpregn": 7076,
      "Ġtraffic": 7077,
      "Ġhandsome": 7078,
      "Ġleaders": 7079,
      "ĠBarty": 7080,
      "Anyway": 7081,
      "Ġcritic": 7082,
      "ĠAssociation": 7083,
      "KE": 7084,
      "ca": 7085,
      "ees": 7086,
      "Ġtent": 7087,
      "Ġdoggy": 7088,
      "Ġsofa": 7089,
      "Ġsuffic": 7090,
      "Ġscri": 7091,
      "innie": 7092,
      "OUT": 7093,
      "eaking": 7094,
      "Ġbecomes": 7095,
      "Ġtyp": 7096,
      "Ġdivision": 7097,
      "Ġhoping": 7098,
      "Ġdeliver": 7099,
      "Ġpillow": 7100,
      "Ġscratch": 7101,
      "26": 7102,
      "Had": 7103,
      "Pr": 7104,
      "sis": 7105,
      "Ġbent": 7106,
      "Ġooh": 7107,
      "Ġpension": 7108,
      "olit": 7109,
      "hia": 7110,
      "neath": 7111,
      "Ġrope": 7112,
      "Ġgrant": 7113,
      "rences": 7114,
      "Ġcris": 7115,
      "Ġslipped": 7116,
      "Ġpointed": 7117,
      "Ġphil": 7118,
      "atively": 7119,
      "197": 7120,
      "Ġmedal": 7121,
      "ĠBlue": 7122,
      "ĠConf": 7123,
      "Ġprisoner": 7124,
      "ĠEllie": 7125,
      "Bill": 7126,
      "Joseph": 7127,
      "Make": 7128,
      "jack": 7129,
      "Ġcot": 7130,
      "Ġdump": 7131,
      "oms": 7132,
      "ador": 7133,
      "Ġaltogether": 7134,
      "again": 7135,
      "Whatever": 7136,
      "issippi": 7137,
      "door": 7138,
      "Ġcolour": 7139,
      "Ġ1986": 7140,
      "Everybody": 7141,
      "ĠWarren": 7142,
      "Ġoriginally": 7143,
      "Ġburned": 7144,
      "ĠAgnes": 7145,
      "vocalizes": 7146,
      "Dear": 7147,
      "bage": 7148,
      "uy": 7149,
      "Ġdialect": 7150,
      "Ġpity": 7151,
      "icide": 7152,
      "stery": 7153,
      "Ġmyster": 7154,
      "ĠDet": 7155,
      "igger": 7156,
      "uddle": 7157,
      "cca": 7158,
      "Ġoldest": 7159,
      "Ġrecomm": 7160,
      "boat": 7161,
      "Ġrelax": 7162,
      "Ġattacked": 7163,
      "ĠHarris": 7164,
      "Ġhammer": 7165,
      "iraffe": 7166,
      "Ġindependent": 7167,
      "Four": 7168,
      "alph": 7169,
      "Ġug": 7170,
      "ĠSpr": 7171,
      "Ġseats": 7172,
      "ĠAbe": 7173,
      "Ġrang": 7174,
      "ĠDen": 7175,
      "quest": 7176,
      "dog": 7177,
      "Ġdistinct": 7178,
      "gery": 7179,
      "ĠDewey": 7180,
      "Ġgrandmother": 7181,
      "Ġchecked": 7182,
      "Ġdivided": 7183,
      "Ġorganization": 7184,
      "BE": 7185,
      "Care": 7186,
      "Has": 7187,
      "rd": 7188,
      "ancial": 7189,
      "Ġpiano": 7190,
      "ourse": 7191,
      "ĠPost": 7192,
      "ĠPenn": 7193,
      "Ġrising": 7194,
      "ĠWal": 7195,
      "Ġsomethin": 7196,
      "intend": 7197,
      "lings": 7198,
      "Ġcontent": 7199,
      "Ġchannel": 7200,
      "Ġdesert": 7201,
      "Ġbreast": 7202,
      "ibi": 7203,
      "aska": 7204,
      "Ġtransl": 7205,
      "Ġexperien": 7206,
      "Ġmanagement": 7207,
      "Ġculture": 7208,
      "olarship": 7209,
      "Bar": 7210,
      "Hmm": 7211,
      "Ġdish": 7212,
      "Ġthorough": 7213,
      "Ġrejo": 7214,
      "eau": 7215,
      "ĠCompany": 7216,
      "ĠPen": 7217,
      "Ġdemon": 7218,
      "ĠFore": 7219,
      "ĠRay": 7220,
      "Ġagre": 7221,
      "Ġblame": 7222,
      "ĠUN": 7223,
      "oving": 7224,
      "Ġbetray": 7225,
      "Ġthirteen": 7226,
      "Ġexpensive": 7227,
      "Ġstudio": 7228,
      "Ġcreature": 7229,
      "hetti": 7230,
      "Ġsatisfied": 7231,
      "Ġescaped": 7232,
      "Hurry": 7233,
      "Ġpushes": 7234,
      "ĠSP": 7235,
      "ĠHolly": 7236,
      "aval": 7237,
      "Ġunfortun": 7238,
      "Ġkeys": 7239,
      "Ġsympat": 7240,
      "Ġconfidence": 7241,
      "Ġfields": 7242,
      "Ġhorsie": 7243,
      "Ġproducer": 7244,
      "Ġprofessor": 7245,
      "moans": 7246,
      "Ġclimbing": 7247,
      "Edna": 7248,
      "Ġinquired": 7249,
      "Ġemergency": 7250,
      "Ġevidently": 7251,
      "Ġnervous": 7252,
      "Move": 7253,
      "Nat": 7254,
      "bar": 7255,
      "bag": 7256,
      "gues": 7257,
      "ige": 7258,
      "uries": 7259,
      "Ġbunch": 7260,
      "Ġdea": 7261,
      "Ġlin": 7262,
      "ompl": 7263,
      "Ġclap": 7264,
      "ileen": 7265,
      "Ġbitter": 7266,
      "oyal": 7267,
      "Ġsixteen": 7268,
      "Ġrelief": 7269,
      "Ġrifle": 7270,
      "Ġsorts": 7271,
      "Ġsisters": 7272,
      "umbled": 7273,
      "Ġshadow": 7274,
      "stein": 7275,
      "Ġ0": 7276,
      "Ġmig": 7277,
      "eding": 7278,
      "Ġbears": 7279,
      "ĠRec": 7280,
      "ĠRachel": 7281,
      "Ġgrace": 7282,
      "brush": 7283,
      "IST": 7284,
      "Ġpresented": 7285,
      "Ġcookie": 7286,
      "Ġmarked": 7287,
      "help": 7288,
      "Ġrequired": 7289,
      "Ġdelighted": 7290,
      "Ġpersons": 7291,
      "Ġpirates": 7292,
      "Ġadventure": 7293,
      "Glory": 7294,
      "AA": 7295,
      "OF": 7296,
      "Sam": 7297,
      "Watch": 7298,
      "hum": 7299,
      "zo": 7300,
      "zing": 7301,
      "Ġsorrow": 7302,
      "Ġowe": 7303,
      "asant": 7304,
      "Ġsequ": 7305,
      "ĠAB": 7306,
      "Ġspite": 7307,
      "Ġproved": 7308,
      "Ġflu": 7309,
      "Ġchick": 7310,
      "Ġmoments": 7311,
      "Ġfourteen": 7312,
      "Ġsetting": 7313,
      "Ġawake": 7314,
      "writer": 7315,
      "stitute": 7316,
      "ĠPortug": 7317,
      "tt": 7318,
      "Ġcents": 7319,
      "Ġduh": 7320,
      "Ġfed": 7321,
      "leave": 7322,
      "Ġbeer": 7323,
      "ĠMajesty": 7324,
      "ĠCy": 7325,
      "ĠBy": 7326,
      "ĠLong": 7327,
      "Ġscare": 7328,
      "Ġdecor": 7329,
      "apped": 7330,
      "Ġ60": 7331,
      "Ġlessons": 7332,
      "Ġheavily": 7333,
      "Ġincreased": 7334,
      "Ġrepresented": 7335,
      "Ġtender": 7336,
      "Ġexercise": 7337,
      "Ser": 7338,
      "case": 7339,
      "duck": 7340,
      "first": 7341,
      "gb": 7342,
      "nor": 7343,
      "Ġwise": 7344,
      "hamed": 7345,
      "Ġlit": 7346,
      "Ġlamb": 7347,
      "adium": 7348,
      "lying": 7349,
      "ĠMolly": 7350,
      "aine": 7351,
      "ĠThanks": 7352,
      "ĠHot": 7353,
      "hoe": 7354,
      "peror": 7355,
      "Ġcontest": 7356,
      "ĠMarilla": 7357,
      "Ġ1993": 7358,
      "Ġextent": 7359,
      "Ġprior": 7360,
      "Ġadvanced": 7361,
      "Ġcontroll": 7362,
      "Ġlegal": 7363,
      "ĠAdams": 7364,
      "Ġbutterfly": 7365,
      "orkshire": 7366,
      "Ġseventy": 7367,
      "ĠAlfgar": 7368,
      "Ġpowder": 7369,
      "Ġfarther": 7370,
      "Amy": 7371,
      "Phil": 7372,
      "ouri": 7373,
      "refers": 7374,
      "Ġmike": 7375,
      "sec": 7376,
      "stick": 7377,
      "ĠBilly": 7378,
      "Ġarmed": 7379,
      "Ġqueen": 7380,
      "onsense": 7381,
      "Ġswift": 7382,
      "Ġsooner": 7383,
      "Ġ1991": 7384,
      "Ġ1988": 7385,
      "Ġsquir": 7386,
      "ĠTeam": 7387,
      "Ġregarded": 7388,
      "ĠGovernment": 7389,
      "Ġdrug": 7390,
      "Ġstruggle": 7391,
      "Bi": 7392,
      "Back": 7393,
      "Col": 7394,
      "bi": 7395,
      "shar": 7396,
      "ington": 7397,
      "Ġstove": 7398,
      "ĠRel": 7399,
      "ĠEric": 7400,
      "Ġclient": 7401,
      "ĠYear": 7402,
      "Ġdescend": 7403,
      "Ġpassion": 7404,
      "ĠMississippi": 7405,
      "Looks": 7406,
      "ipper": 7407,
      "nesday": 7408,
      "Indeed": 7409,
      "THAT": 7410,
      "lam": 7411,
      "lots": 7412,
      "zed": 7413,
      "erg": 7414,
      "Ġpure": 7415,
      "Ġlosing": 7416,
      "Ġbelly": 7417,
      "ĠSax": 7418,
      "ĠBang": 7419,
      "Ġshed": 7420,
      "Ġsheet": 7421,
      "istry": 7422,
      "Ġworn": 7423,
      "Ġvain": 7424,
      "Ġcock": 7425,
      "ATION": 7426,
      "Ġrefused": 7427,
      "ĠXX": 7428,
      "Ġbelongs": 7429,
      "ĠElizabeth": 7430,
      "Ġcomplain": 7431,
      "Ġcollection": 7432,
      "ĠRobin": 7433,
      "IFA": 7434,
      "Shall": 7435,
      "Ellie": 7436,
      "Mark": 7437,
      "Ġign": 7438,
      "Ġtiss": 7439,
      "rels": 7440,
      "Ġfate": 7441,
      "Ġinn": 7442,
      "Ġhug": 7443,
      "Ġmechan": 7444,
      "ĠAp": 7445,
      "elled": 7446,
      "ĠList": 7447,
      "Ġconclud": 7448,
      "Ġunit": 7449,
      "Ġremains": 7450,
      "ĠYorkshire": 7451,
      "Ġcheeks": 7452,
      "didn": 7453,
      "ISS": 7454,
      "Ġsymb": 7455,
      "ĠIsrael": 7456,
      "blows": 7457,
      "Ġforeign": 7458,
      "iverse": 7459,
      "Ġvillages": 7460,
      "ĠParliament": 7461,
      "Ġoperation": 7462,
      "Ġresponsibility": 7463,
      "Ġreligion": 7464,
      "ĠEmpire": 7465,
      "Des": 7466,
      "Tony": 7467,
      "bor": 7468,
      "sur": 7469,
      "ym": 7470,
      "Ġben": 7471,
      "Ġcouch": 7472,
      "ingle": 7473,
      "ayne": 7474,
      "Ġnuclear": 7475,
      "ĠCam": 7476,
      "ĠBru": 7477,
      "Ġjournal": 7478,
      "ĠJr": 7479,
      "ĠRod": 7480,
      "Ġroy": 7481,
      "Ġsche": 7482,
      "Ġcompar": 7483,
      "looks": 7484,
      "Ġrescue": 7485,
      "Ġchamp": 7486,
      "Ġaccompl": 7487,
      "Ġinstance": 7488,
      "Ġ1987": 7489,
      "Ġmarks": 7490,
      "Ġbanana": 7491,
      "ACK": 7492,
      "Ġreferred": 7493,
      "Ġpirate": 7494,
      "ĠLatin": 7495,
      "__": 7496,
      "bang": 7497,
      "syl": 7498,
      "Ġx": 7499,
      "Ġbord": 7500,
      "aned": 7501,
      "Ġheight": 7502,
      "stone": 7503,
      "Ġmeasure": 7504,
      "ĠBook": 7505,
      "Ġcannon": 7506,
      "ĠPers": 7507,
      "ĠJason": 7508,
      "Ġalarm": 7509,
      "Ġwhenever": 7510,
      "Ġblowing": 7511,
      "excuse": 7512,
      "Ġstudent": 7513,
      "AKE": 7514,
      "Ġpsych": 7515,
      "Ġneighborhood": 7516,
      "Try": 7517,
      "hu": 7518,
      "hot": 7519,
      "iation": 7520,
      "Ġbon": 7521,
      "ann": 7522,
      "Ġpoo": 7523,
      "Ġintern": 7524,
      "Ġrat": 7525,
      "acker": 7526,
      "ĠGet": 7527,
      "ĠGirl": 7528,
      "ĠFire": 7529,
      "Ġbold": 7530,
      "Ġbelt": 7531,
      "Ġlaws": 7532,
      "ĠCommun": 7533,
      "whispering": 7534,
      "ĠRichards": 7535,
      "ĠWilliams": 7536,
      "Probably": 7537,
      "Ġpaused": 7538,
      "ondissement": 7539,
      "Ġpicnic": 7540,
      "Ġfollows": 7541,
      "Turn": 7542,
      "dri": 7543,
      "foot": 7544,
      "Ġwinner": 7545,
      "oni": 7546,
      "iture": 7547,
      "Ġcode": 7548,
      "choo": 7549,
      "ĠBre": 7550,
      "Ġrac": 7551,
      "Ġsale": 7552,
      "Ġplus": 7553,
      "ĠJerry": 7554,
      "ĠFair": 7555,
      "Ġspect": 7556,
      "Ġprec": 7557,
      "hess": 7558,
      "pected": 7559,
      "ĠJohnson": 7560,
      "Ġsubst": 7561,
      "Ġpurcha": 7562,
      "Ġtrem": 7563,
      "Ġengines": 7564,
      "Ġadvance": 7565,
      "ĠAsia": 7566,
      "Ġspirits": 7567,
      "Ġentrance": 7568,
      "Ġstolen": 7569,
      "Jane": 7570,
      "find": 7571,
      "move": 7572,
      "ras": 7573,
      "western": 7574,
      "wyn": 7575,
      "Ġcaut": 7576,
      "Ġdiamond": 7577,
      "Ġpitch": 7578,
      "Ġincome": 7579,
      "ĠIran": 7580,
      "rose": 7581,
      "ĠSav": 7582,
      "Ġlibrary": 7583,
      "ĠBuild": 7584,
      "ĠPac": 7585,
      "elia": 7586,
      "ĠFe": 7587,
      "ĠLower": 7588,
      "Ġgotten": 7589,
      "Ġworkers": 7590,
      "inton": 7591,
      "Ġunderneath": 7592,
      "Ġ185": 7593,
      "Ġfifth": 7594,
      "Ġamongst": 7595,
      "Ġvolume": 7596,
      "Ġromantic": 7597,
      "Maggie": 7598,
      "ĠCatholic": 7599,
      "Ġugly": 7600,
      "top": 7601,
      "Ġchips": 7602,
      "Ġdu": 7603,
      "ĠFIFA": 7604,
      "Ġvast": 7605,
      "hio": 7606,
      "Ġclouds": 7607,
      "issa": 7608,
      "Ġtravell": 7609,
      "Ġgrandfather": 7610,
      "Ġ90": 7611,
      "coming": 7612,
      "ursday": 7613,
      "Ġproduct": 7614,
      "Ġglasses": 7615,
      "Ġfleet": 7616,
      "Ġfolk": 7617,
      "Ġeagerly": 7618,
      "Ġimprove": 7619,
      "\").": 7620,
      "Five": 7621,
      "IES": 7622,
      "Life": 7623,
      "Yep": 7624,
      "mummy": 7625,
      "Ġbast": 7626,
      "Ġcig": 7627,
      "alm": 7628,
      "Ġwealth": 7629,
      "rif": 7630,
      "hers": 7631,
      "ĠBaby": 7632,
      "umes": 7633,
      "Ġspin": 7634,
      "Ġflash": 7635,
      "Ġchums": 7636,
      "Ġswall": 7637,
      "ĠYoung": 7638,
      "Ġ1972": 7639,
      "Ġsuspic": 7640,
      "ĠSenate": 7641,
      "Ġsucceeded": 7642,
      "ĠDivision": 7643,
      "Ġinhabit": 7644,
      "Ġgrateful": 7645,
      "'...": 7646,
      "27": 7647,
      "CT": 7648,
      "Mean": 7649,
      "gate": 7650,
      "wha": 7651,
      "Ġwitch": 7652,
      "asa": 7653,
      "Ġhut": 7654,
      "ĠGil": 7655,
      "ĠLand": 7656,
      "osity": 7657,
      "ĠHello": 7658,
      "Ġuseta": 7659,
      "Ġpartly": 7660,
      "Ġparties": 7661,
      "icture": 7662,
      "lets": 7663,
      "Ġ1989": 7664,
      "Ġsteal": 7665,
      "Ġstronger": 7666,
      "Ġticket": 7667,
      "Ġpigs": 7668,
      "Ġhoped": 7669,
      "idae": 7670,
      "Ġpersu": 7671,
      "Ġreligious": 7672,
      "ĠCarolina": 7673,
      "Aha": 7674,
      "Nor": 7675,
      "Yet": 7676,
      "Ġsession": 7677,
      "Ġcounter": 7678,
      "Ġocean": 7679,
      "ĠCL": 7680,
      "ĠCON": 7681,
      "Ġnotes": 7682,
      "ĠARE": 7683,
      "Ġaltern": 7684,
      "ĠFar": 7685,
      "Ġcomr": 7686,
      "ĠĠĠĠĠ": 7687,
      "ĠKelly": 7688,
      "Ġconsult": 7689,
      "Ġ1985": 7690,
      "Ġpupp": 7691,
      "Ġjumping": 7692,
      "Uncle": 7693,
      "ophie": 7694,
      "Ġinnocent": 7695,
      "Mart": 7696,
      "WHAT": 7697,
      "love": 7698,
      "amps": 7699,
      "urg": 7700,
      "Ġsoap": 7701,
      "ĠPop": 7702,
      "ĠWed": 7703,
      "ĠHome": 7704,
      "ĠHockey": 7705,
      "ĠKy": 7706,
      "leton": 7707,
      "Ġfinds": 7708,
      "Ġcheap": 7709,
      "Ġbush": 7710,
      "Ġtermin": 7711,
      "Ġlanded": 7712,
      "Ġthousands": 7713,
      "Ġdaily": 7714,
      "ĠINV": 7715,
      "Ġeffects": 7716,
      "Ġprotection": 7717,
      "Ġconditions": 7718,
      "Ġsuffer": 7719,
      "Ġterritory": 7720,
      "screams": 7721,
      "La": 7722,
      "bits": 7723,
      "cles": 7724,
      "fire": 7725,
      "hta": 7726,
      "Ġtub": 7727,
      "Ġaye": 7728,
      "oubles": 7729,
      "atre": 7730,
      "lection": 7731,
      "also": 7732,
      "Ġnoisy": 7733,
      "Ġrug": 7734,
      "aste": 7735,
      "Ġletting": 7736,
      "Ġunf": 7737,
      "Ġguide": 7738,
      "Ġhelicop": 7739,
      "Ġcounties": 7740,
      "Ġpassengers": 7741,
      "Ġstuffed": 7742,
      "Someone": 7743,
      "Ġ1950": 7744,
      "Ġpiggy": 7745,
      "Ġspending": 7746,
      "Ġadmit": 7747,
      "ĠMickey": 7748,
      "Ġcompleted": 7749,
      "Ġunusual": 7750,
      "Aunt": 7751,
      "FOR": 7752,
      "bird": 7753,
      "iar": 7754,
      "mag": 7755,
      "uction": 7756,
      "iches": 7757,
      "acle": 7758,
      "Ġanno": 7759,
      "ĠPilchard": 7760,
      "ulate": 7761,
      "ĠFord": 7762,
      "ĠEmm": 7763,
      "aging": 7764,
      "Ġhanded": 7765,
      "Ġchose": 7766,
      "Ġdeserve": 7767,
      "ĠArthur": 7768,
      "burgh": 7769,
      "Ġbasically": 7770,
      "Ġarranged": 7771,
      "ĠNorthern": 7772,
      "Ġgirlfriend": 7773,
      "py": 7774,
      "phew": 7775,
      "toy": 7776,
      "yard": 7777,
      "Â°": 7778,
      "Ġmole": 7779,
      "Ġstool": 7780,
      "ĠSand": 7781,
      "ĠBir": 7782,
      "ements": 7783,
      "teacher": 7784,
      "Ġlets": 7785,
      "ĠStanton": 7786,
      "Ġrecent": 7787,
      "Ġphr": 7788,
      "Ġsteady": 7789,
      "Ġgrab": 7790,
      "Ġlately": 7791,
      "coln": 7792,
      "Ġcauses": 7793,
      "Ġsalt": 7794,
      "Ġmurm": 7795,
      "Ġselling": 7796,
      "Ġpermission": 7797,
      "Ġfalse": 7798,
      "Ġscheme": 7799,
      "AG": 7800,
      "Big": 7801,
      "comm": 7802,
      "fits": 7803,
      "gment": 7804,
      "Ġmood": 7805,
      "Ġpowers": 7806,
      "Ġlat": 7807,
      "ati": 7808,
      "ĠMia": 7809,
      "ĠShow": 7810,
      "ĠAS": 7811,
      "iform": 7812,
      "ĠDun": 7813,
      "aki": 7814,
      "Ġspark": 7815,
      "Ġexha": 7816,
      "osely": 7817,
      "Inter": 7818,
      "Ġshaking": 7819,
      "Ġappears": 7820,
      "mme": 7821,
      "Ġexplan": 7822,
      "Ġservants": 7823,
      "Ġmedia": 7824,
      "Ġloving": 7825,
      "Ġreports": 7826,
      "Ġestim": 7827,
      "Ġfortun": 7828,
      "ylmer": 7829,
      "Ġsuffering": 7830,
      "something": 7831,
      "Ġdreadful": 7832,
      "Ġachieve": 7833,
      "AH": 7834,
      "gonna": 7835,
      "Ġwings": 7836,
      "Ġashamed": 7837,
      "Ġrust": 7838,
      "Ġsaus": 7839,
      "ĠRome": 7840,
      "ĠRalph": 7841,
      "Ġconver": 7842,
      "icted": 7843,
      "Ġelev": 7844,
      "Ġdriven": 7845,
      "ĠGroup": 7846,
      "arrass": 7847,
      "Ġ1979": 7848,
      "Anything": 7849,
      "Ġdisappear": 7850,
      "Ġlimited": 7851,
      "Ġmummie": 7852,
      "ĠDepartment": 7853,
      "Ġbuttons": 7854,
      "Bessie": 7855,
      "CI": 7856,
      "Ric": 7857,
      "gone": 7858,
      "tick": 7859,
      "Äģ": 7860,
      "erous": 7861,
      "Ġstole": 7862,
      "ĠCons": 7863,
      "ĠBed": 7864,
      "Ġability": 7865,
      "ĠOUT": 7866,
      "Ġaffection": 7867,
      "hedral": 7868,
      "ahul": 7869,
      "ruct": 7870,
      "Ġ184": 7871,
      "Ġ189": 7872,
      "ennes": 7873,
      "Ġpotatoes": 7874,
      "Ġillness": 7875,
      "Ġconnection": 7876,
      "vania": 7877,
      "named": 7878,
      "pick": 7879,
      "woof": 7880,
      "yy": 7881,
      "rek": 7882,
      "Ġbounc": 7883,
      "Ġtoe": 7884,
      "anks": 7885,
      "Ġpardon": 7886,
      "Ġthrill": 7887,
      "idays": 7888,
      "umper": 7889,
      "Ġjoint": 7890,
      "Ġrice": 7891,
      "emic": 7892,
      "ĠKen": 7893,
      "Ġlegend": 7894,
      "Ġgray": 7895,
      "Ġpride": 7896,
      "Ġnights": 7897,
      "Ġwarning": 7898,
      "Ġ183": 7899,
      "Ġframe": 7900,
      "Ġfoods": 7901,
      "Ġ1982": 7902,
      "ĠClub": 7903,
      "Ġexplos": 7904,
      "Ġcleaning": 7905,
      "Ġdisappointed": 7906,
      "sname": 7907,
      "ĠGolden": 7908,
      "poor": 7909,
      "rr": 7910,
      "uan": 7911,
      "onge": 7912,
      "era": 7913,
      "omed": 7914,
      "Ġrear": 7915,
      "ĠCOM": 7916,
      "ĠSara": 7917,
      "Ġanal": 7918,
      "ĠPo": 7919,
      "hant": 7920,
      "resp": 7921,
      "ĠNick": 7922,
      "ĠOf": 7923,
      "achus": 7924,
      "Ġleaf": 7925,
      "inned": 7926,
      "azz": 7927,
      "ethro": 7928,
      "Ġwaters": 7929,
      "Ġloft": 7930,
      "Ġphysical": 7931,
      "Ġrevolution": 7932,
      "Ġwhistle": 7933,
      "ĠIrish": 7934,
      "Ġobliged": 7935,
      "sylvania": 7936,
      "28": 7937,
      "App": 7938,
      "VID": 7939,
      "dale": 7940,
      "Ġsings": 7941,
      "Ġfederal": 7942,
      "Ġyummy": 7943,
      "lemme": 7944,
      "iculous": 7945,
      "ĠCAN": 7946,
      "ĠSH": 7947,
      "ĠAng": 7948,
      "ĠTor": 7949,
      "ĠTwo": 7950,
      "Ġaband": 7951,
      "berries": 7952,
      "Ġunable": 7953,
      "Ġslip": 7954,
      "Ġraining": 7955,
      "okes": 7956,
      "uesday": 7957,
      "Ġconfl": 7958,
      "umbling": 7959,
      "Ġrolled": 7960,
      "Ġbasis": 7961,
      "Ġpresidential": 7962,
      "BUT": 7963,
      "Comm": 7964,
      "ez": 7965,
      "yum": 7966,
      "Ġtank": 7967,
      "Ġcows": 7968,
      "Ġstarring": 7969,
      "unior": 7970,
      "raine": 7971,
      "istics": 7972,
      "orden": 7973,
      "Ġlanding": 7974,
      "Ġsales": 7975,
      "Ġprograms": 7976,
      "Ġcalcul": 7977,
      "ĠDaniel": 7978,
      "ĠBatala": 7979,
      "Ġfocus": 7980,
      "ĠScotland": 7981,
      "ĠDisney": 7982,
      "Open": 7983,
      "dra": 7984,
      "isl": 7985,
      "Ġlink": 7986,
      "Ġlamp": 7987,
      "Ġincl": 7988,
      "ĠAwww": 7989,
      "ĠPooh": 7990,
      "aka": 7991,
      "aghetti": 7992,
      "pecial": 7993,
      "Ġamend": 7994,
      "Ġflood": 7995,
      "into": 7996,
      "Ġnicely": 7997,
      "whines": 7998,
      "Ġsleepy": 7999,
      "cript": 8000,
      "Ġoccupied": 8001,
      "mes": 8002,
      "Ġig": 8003,
      "Ġwip": 8004,
      "alls": 8005,
      "arts": 8006,
      "ĠFox": 8007,
      "ĠHind": 8008,
      "ĠOak": 8009,
      "Ġpointing": 8010,
      "Ġsched": 8011,
      "ints": 8012,
      "Ġchop": 8013,
      "Ġcontains": 8014,
      "ĠMissouri": 8015,
      "ipping": 8016,
      "Ġsystems": 8017,
      "Ġadmir": 8018,
      "Ġtracks": 8019,
      "ECT": 8020,
      "Ġextremely": 8021,
      "ĠBrazil": 8022,
      "UM": 8023,
      "gro": 8024,
      "mouth": 8025,
      "ois": 8026,
      "ture": 8027,
      "ito": 8028,
      "etts": 8029,
      "ĠMars": 8030,
      "ĠCap": 8031,
      "ĠPorter": 8032,
      "Ġrot": 8033,
      "ĠNow": 8034,
      "hole": 8035,
      "becca": 8036,
      "ĠStud": 8037,
      "ĠVaud": 8038,
      "Ġkeen": 8039,
      "Ġchew": 8040,
      "Ġfunction": 8041,
      "Ġdraws": 8042,
      "Ġstudies": 8043,
      "Ġprompt": 8044,
      "bbing": 8045,
      "Ġwooden": 8046,
      "Ġbreathing": 8047,
      "Ġbanks": 8048,
      "Ġadventures": 8049,
      "Geography": 8050,
      "ĠPacific": 8051,
      "Pre": 8052,
      "Sec": 8053,
      "]...": 8054,
      "Ġbay": 8055,
      "Ġhills": 8056,
      "Ġthirst": 8057,
      "amas": 8058,
      "ĠAsh": 8059,
      "ĠPir": 8060,
      "abel": 8061,
      "ĠRad": 8062,
      "ĠHon": 8063,
      "Ġcomed": 8064,
      "Ġguests": 8065,
      "ĠVis": 8066,
      "Ġsuppl": 8067,
      "Ġreality": 8068,
      "ervation": 8069,
      "Ġattacks": 8070,
      "Ġarrival": 8071,
      "ongratulations": 8072,
      "ĠTurkish": 8073,
      "Em": 8074,
      "Geor": 8075,
      "Jim": 8076,
      "name": 8077,
      "uj": 8078,
      "vy": 8079,
      "iser": 8080,
      "enes": 8081,
      "aye": 8082,
      "Ġrent": 8083,
      "ĠBet": 8084,
      "ĠFirst": 8085,
      "ardo": 8086,
      "ĠHol": 8087,
      "ĠKenn": 8088,
      "Ġdraft": 8089,
      "Ġdollar": 8090,
      "Ġcountryside": 8091,
      "bsolutely": 8092,
      "Ġdistricts": 8093,
      "ĠWillie": 8094,
      "Ġbullet": 8095,
      "Ġnetwork": 8096,
      "Ġembarrass": 8097,
      "Ġdesperate": 8098,
      "ĠRemi": 8099,
      "enguin": 8100,
      "Ġcongressional": 8101,
      "cray": 8102,
      "Ġpond": 8103,
      "Ġpipe": 8104,
      "Ġgreet": 8105,
      "omi": 8106,
      "Ġnest": 8107,
      "Ġseized": 8108,
      "ĠAri": 8109,
      "umph": 8110,
      "Ġsock": 8111,
      "ĠPL": 8112,
      "quick": 8113,
      "ĠWHAT": 8114,
      "orted": 8115,
      "Ġunion": 8116,
      "Ġattended": 8117,
      "Ġsets": 8118,
      "urton": 8119,
      "Ġsubs": 8120,
      "Ġrefers": 8121,
      "ĠClar": 8122,
      "Ġtreasure": 8123,
      "ĠAndy": 8124,
      "Ġvisited": 8125,
      "doesn": 8126,
      "Ġeventually": 8127,
      "Play": 8128,
      "ufact": 8129,
      "ĠLabour": 8130,
      "Ġresources": 8131,
      "Ġinhabitants": 8132,
      "Jesus": 8133,
      "inces": 8134,
      "Ġsin": 8135,
      "hamm": 8136,
      "Ġfits": 8137,
      "ĠSil": 8138,
      "Ġhers": 8139,
      "Ġplot": 8140,
      "igator": 8141,
      "ĠLu": 8142,
      "Ġmanufact": 8143,
      "Though": 8144,
      "Ġuncom": 8145,
      "Ġsecure": 8146,
      "Ġacted": 8147,
      "Ġapples": 8148,
      "ective": 8149,
      "Ġboyfriend": 8150,
      "Ġchase": 8151,
      "Ġcommitted": 8152,
      "Ġdistant": 8153,
      "Ġbeds": 8154,
      "Ġidiot": 8155,
      "Ġsteel": 8156,
      "Frank": 8157,
      "Ġkingdom": 8158,
      "Ġdetails": 8159,
      "Ġwhisper": 8160,
      "Carl": 8161,
      "Ġrestaurant": 8162,
      "Ġpregnant": 8163,
      "ĠPennsylvania": 8164,
      "cur": 8165,
      "di": 8166,
      "wen": 8167,
      "Ġsam": 8168,
      "Ġmaid": 8169,
      "Ġfo": 8170,
      "Ġpressed": 8171,
      "ĠSol": 8172,
      "Ġanger": 8173,
      "Ġnoted": 8174,
      "ĠAD": 8175,
      "unched": 8176,
      "Ġsauce": 8177,
      "ques": 8178,
      "ĠHa": 8179,
      "ĠNic": 8180,
      "Ġexped": 8181,
      "clever": 8182,
      "shh": 8183,
      "ibly": 8184,
      "Ġpossession": 8185,
      "Chris": 8186,
      "Ġbroadcast": 8187,
      "Ġtemperature": 8188,
      "Charlie": 8189,
      "Ġpattern": 8190,
      "squeals": 8191,
      "Ġfreedom": 8192,
      "ĠRepresentatives": 8193,
      "EF": 8194,
      "onies": 8195,
      "Ġgrey": 8196,
      "ĠIII": 8197,
      "ĠCho": 8198,
      "ĠShar": 8199,
      "Ġseated": 8200,
      "ĠApp": 8201,
      "ĠJan": 8202,
      "Ġconference": 8203,
      "Ġbrace": 8204,
      "Ġflung": 8205,
      "Ġfuneral": 8206,
      "IDS": 8207,
      "Ġarrive": 8208,
      "Ġgolden": 8209,
      "Ġmammy": 8210,
      "Ġrubber": 8211,
      "Ġhousing": 8212,
      "Ġviolence": 8213,
      "Ġtechnology": 8214,
      "Ġpilot": 8215,
      "ĠConfeder": 8216,
      "Ġroyal": 8217,
      "Co": 8218,
      "song": 8219,
      "Ġwoke": 8220,
      "orange": 8221,
      "Ġgri": 8222,
      "Ġfork": 8223,
      "ĠMosely": 8224,
      "ĠSoo": 8225,
      "ĠBas": 8226,
      "ĠDON": 8227,
      "olk": 8228,
      "ivered": 8229,
      "Ġspots": 8230,
      "Ġgrat": 8231,
      "close": 8232,
      "Ġcharges": 8233,
      "Ġsounded": 8234,
      "Ġrepro": 8235,
      "Without": 8236,
      "Ġload": 8237,
      "Ġmiserable": 8238,
      "ĠMusic": 8239,
      "ĠNavy": 8240,
      "takes": 8241,
      "Ġwishes": 8242,
      "Ġbore": 8243,
      "Ġcakes": 8244,
      "orious": 8245,
      "ĠMobile": 8246,
      "ĠSC": 8247,
      "Ġash": 8248,
      "ĠDu": 8249,
      "ĠDes": 8250,
      "ĠHannah": 8251,
      "ĠNan": 8252,
      "agle": 8253,
      "Ġintake": 8254,
      "Ġrode": 8255,
      "ĠUP": 8256,
      "Ġunknown": 8257,
      "Ġdisplay": 8258,
      "Ġfinancial": 8259,
      "Ġpresents": 8260,
      "Ġbushes": 8261,
      "Ġconscious": 8262,
      "arrot": 8263,
      "ĠInter": 8264,
      "Ġconfir": 8265,
      "Ġlesson": 8266,
      "Ġcoloring": 8267,
      "Ġshark": 8268,
      "Ġteachers": 8269,
      "Ġshouting": 8270,
      "Ġprinci": 8271,
      "Ġremaining": 8272,
      "break": 8273,
      "glas": 8274,
      "sometimes": 8275,
      "Ġtunnel": 8276,
      "ĠCampbell": 8277,
      "SP": 8278,
      "bot": 8279,
      "fs": 8280,
      "Ġeth": 8281,
      "Ġbul": 8282,
      "ori": 8283,
      "Ġgle": 8284,
      "Ġhay": 8285,
      "ĠBaker": 8286,
      "rah": 8287,
      "Ġshy": 8288,
      "ĠLI": 8289,
      "ĠLilian": 8290,
      "Ġexceed": 8291,
      "ague": 8292,
      "Were": 8293,
      "Ġmustn": 8294,
      "Ġmighty": 8295,
      "Ġtrave": 8296,
      "Ġretire": 8297,
      "ĠAlice": 8298,
      "Ġ1969": 8299,
      "ĠJackson": 8300,
      "Ġauthorities": 8301,
      "Ġbuddy": 8302,
      "Ġinterrupted": 8303,
      "icycle": 8304,
      "Ġroute": 8305,
      "ĠPrefecture": 8306,
      "achusetts": 8307,
      "cest": 8308,
      "even": 8309,
      "nut": 8310,
      "Ġtin": 8311,
      "Ġwicked": 8312,
      "Ġsigh": 8313,
      "Ġfetch": 8314,
      "Ġitem": 8315,
      "imp": 8316,
      "adu": 8317,
      "Ġkil": 8318,
      "ieve": 8319,
      "Ġdeer": 8320,
      "Ġjustice": 8321,
      "Ġintellig": 8322,
      "people": 8323,
      "ĠStar": 8324,
      "rub": 8325,
      "Ġguid": 8326,
      "Ġimpl": 8327,
      "Ġbug": 8328,
      "Ġenthus": 8329,
      "Ġminds": 8330,
      "Ġtremb": 8331,
      "ĠPhilipp": 8332,
      "ompan": 8333,
      "Ġaffairs": 8334,
      "Ġnearest": 8335,
      "Ġdebate": 8336,
      "ĠWilson": 8337,
      "Ġvehicle": 8338,
      "500": 8339,
      "Bel": 8340,
      "pill": 8341,
      "wick": 8342,
      "arian": 8343,
      "acity": 8344,
      "amm": 8345,
      "Ġseasons": 8346,
      "Ġnephew": 8347,
      "Ġracing": 8348,
      "ĠLook": 8349,
      "ĠHart": 8350,
      "Ġconcl": 8351,
      "Ġdrag": 8352,
      "lessly": 8353,
      "ĠGrace": 8354,
      "Ġ1976": 8355,
      "Ġapproached": 8356,
      "Ġclimate": 8357,
      "Ġicecream": 8358,
      "ĠPeople": 8359,
      "ĠMcGlory": 8360,
      "Ġconsiderable": 8361,
      "Ġlimit": 8362,
      "Ġbenefit": 8363,
      "Ġstroke": 8364,
      "ĠHayden": 8365,
      "codile": 8366,
      "29": 8367,
      "Gra": 8368,
      "inging": 8369,
      "Ġpit": 8370,
      "ĠIm": 8371,
      "acious": 8372,
      "Ġreb": 8373,
      "Ġrev": 8374,
      "Ġforb": 8375,
      "irts": 8376,
      "ilight": 8377,
      "umin": 8378,
      "ĠDire": 8379,
      "need": 8380,
      "Ġscored": 8381,
      "âĻ«": 8382,
      "Ġattached": 8383,
      "Ġsupply": 8384,
      "umpy": 8385,
      "oki": 8386,
      "Ġ1981": 8387,
      "Ġroads": 8388,
      "ĠTrump": 8389,
      "Ġthreatened": 8390,
      "ĠJersey": 8391,
      "Pat": 8392,
      "Peter": 8393,
      "Rel": 8394,
      "away": 8395,
      "Ġward": 8396,
      "Ġcries": 8397,
      "still": 8398,
      "ilton": 8399,
      "ĠWOR": 8400,
      "venge": 8401,
      "Ġbackwards": 8402,
      "Ġbrand": 8403,
      "pless": 8404,
      "Ġglanced": 8405,
      "Ġbegun": 8406,
      "Ġconsist": 8407,
      "Ġ1984": 8408,
      "Ġcurtain": 8409,
      "Ġpoorly": 8410,
      "black": 8411,
      "Ġappropriate": 8412,
      "Ġdressing": 8413,
      "evin": 8414,
      "vocalization": 8415,
      "Ġblew": 8416,
      "sembly": 8417,
      "IAN": 8418,
      "Mon": 8419,
      "last": 8420,
      "wide": 8421,
      "Ġbeans": 8422,
      "uties": 8423,
      "ĠAli": 8424,
      "ĠJake": 8425,
      "ĠFaith": 8426,
      "Ġintense": 8427,
      "Ġdisag": 8428,
      "Ġappeal": 8429,
      "ĠEddie": 8430,
      "Ġcuts": 8431,
      "Ġconfess": 8432,
      "Ġofficially": 8433,
      "Ġsolid": 8434,
      "Ġcompeted": 8435,
      "Ġtorn": 8436,
      "Ġloudly": 8437,
      "ĠBroad": 8438,
      "Ġconnected": 8439,
      "Ġshelter": 8440,
      "Aren": 8441,
      "Child": 8442,
      "des": 8443,
      "Ġcott": 8444,
      "anas": 8445,
      "asters": 8446,
      "ĠSA": 8447,
      "Ġlif": 8448,
      "ĠDra": 8449,
      "inkle": 8450,
      "ĠJeff": 8451,
      "akin": 8452,
      "Ġblows": 8453,
      "text": 8454,
      "ordon": 8455,
      "izz": 8456,
      "Ġhappiness": 8457,
      "clears": 8458,
      "Ġexchan": 8459,
      "Ġpurs": 8460,
      "Ġemot": 8461,
      "Ã¡n": 8462,
      "AME": 8463,
      "Exactly": 8464,
      "Ġstarred": 8465,
      "Ġmurdered": 8466,
      "Ġmunicipal": 8467,
      "Ġnecessarily": 8468,
      "Ġgenus": 8469,
      "Ġdelightful": 8470,
      "Ġinjured": 8471,
      "Mmm": 8472,
      "Person": 8473,
      "nge": 8474,
      "Ġbid": 8475,
      "adel": 8476,
      "Ġmyth": 8477,
      "Ġrude": 8478,
      "ĠTan": 8479,
      "ĠJumbo": 8480,
      "ĠWhen": 8481,
      "inder": 8482,
      "ĠNO": 8483,
      "Ġuniform": 8484,
      "Ġteaching": 8485,
      "Ġearned": 8486,
      "Ġ2023": 8487,
      "ertainly": 8488,
      "ussy": 8489,
      "Ġimportance": 8490,
      "Ġsupported": 8491,
      "Ġenvironmental": 8492,
      "Biography": 8493,
      "None": 8494,
      "Rat": 8495,
      "aah": 8496,
      "pre": 8497,
      "uits": 8498,
      "Ġtale": 8499,
      "Ġdull": 8500,
      "Ġlt": 8501,
      "Ġreward": 8502,
      "stra": 8503,
      "eaut": 8504,
      "ĠAylmer": 8505,
      "Ġmystery": 8506,
      "ĠLes": 8507,
      "Ġprospect": 8508,
      "ĠOff": 8509,
      "ĠOhio": 8510,
      "Ġtroubles": 8511,
      "ĠUh": 8512,
      "Ġswept": 8513,
      "Ġpassage": 8514,
      "shine": 8515,
      "Ġringing": 8516,
      "Ġcosts": 8517,
      "Ġlevels": 8518,
      "Ġprincip": 8519,
      "hetic": 8520,
      "Ġconduct": 8521,
      "Ġmultip": 8522,
      "Ġtissue": 8523,
      "Meanwhile": 8524,
      "Hal": 8525,
      "Int": 8526,
      "James": 8527,
      "crying": 8528,
      "giving": 8529,
      "Ġwars": 8530,
      "ĠField": 8531,
      "ĠHave": 8532,
      "Ġpecul": 8533,
      "Ġguitar": 8534,
      "Ġimpression": 8535,
      "ĠAnna": 8536,
      "196": 8537,
      "Ġbearing": 8538,
      "Ġducks": 8539,
      "cription": 8540,
      "ĠĠĠĠĠĠĠ": 8541,
      "ĠScholarship": 8542,
      "ĠLawrence": 8543,
      "Warren": 8544,
      "ĠWednesday": 8545,
      "Ġigno": 8546,
      "Hy": 8547,
      "SO": 8548,
      "gal": 8549,
      "sar": 8550,
      "til": 8551,
      "works": 8552,
      "Ġtack": 8553,
      "heim": 8554,
      "Ġwreck": 8555,
      "hall": 8556,
      "erk": 8557,
      "Ġbatt": 8558,
      "nda": 8559,
      "Ġtox": 8560,
      "Ġhipp": 8561,
      "Ġnoble": 8562,
      "ĠRus": 8563,
      "Ġcarpet": 8564,
      "Ġprem": 8565,
      "rett": 8566,
      "Ġchart": 8567,
      "ĠCarter": 8568,
      "ĠSociety": 8569,
      "ĠPatrick": 8570,
      "Ġridiculous": 8571,
      "Ġactivities": 8572,
      "ALLY": 8573,
      "Ġviolent": 8574,
      "softly": 8575,
      "Ġchampionship": 8576,
      "Ġmysterious": 8577,
      "Damn": 8578,
      "SC": 8579,
      "breat": 8580,
      "kind": 8581,
      "part": 8582,
      "Ġtempt": 8583,
      "Ġtools": 8584,
      "orne": 8585,
      "ĠIf": 8586,
      "Ġdoctors": 8587,
      "ĠMall": 8588,
      "ilk": 8589,
      "ĠTommy": 8590,
      "ĠGi": 8591,
      "ĠLife": 8592,
      "ĠWall": 8593,
      "Ġpeekaboo": 8594,
      "Ġfever": 8595,
      "Ġscary": 8596,
      "Ġproof": 8597,
      "gets": 8598,
      "ĠYe": 8599,
      "Ġswear": 8600,
      "Ġexpecting": 8601,
      "uki": 8602,
      "somebody": 8603,
      "Ġdiag": 8604,
      "ĠIreland": 8605,
      "Ġsnakes": 8606,
      "Ġwhale": 8607,
      "Ġsolemn": 8608,
      "sharp": 8609,
      "Eh": 8610,
      "Old": 8611,
      "hor": 8612,
      "refer": 8613,
      "Ġlou": 8614,
      "ĠCooper": 8615,
      "Ġjew": 8616,
      "Ġdey": 8617,
      "oli": 8618,
      "ĠJenny": 8619,
      "Ġwanting": 8620,
      "Ġpros": 8621,
      "Ġunhappy": 8622,
      "Ġremove": 8623,
      "Ġbuying": 8624,
      "Ġsites": 8625,
      "inson": 8626,
      "Ġribb": 8627,
      "Ġsubm": 8628,
      "âĢĺ_": 8629,
      "Ġ1964": 8630,
      "Ġbags": 8631,
      "Ã³n": 8632,
      "ĠMassachusetts": 8633,
      "Ġincredible": 8634,
      "Ġphilos": 8635,
      "GO": 8636,
      "Jo": 8637,
      "bir": 8638,
      "girl": 8639,
      "Ġsons": 8640,
      "Ġcage": 8641,
      "aro": 8642,
      "Ġhits": 8643,
      "Ġstack": 8644,
      "oland": 8645,
      "ĠRom": 8646,
      "Ġleather": 8647,
      "ahhah": 8648,
      "Ġwrites": 8649,
      "Ġchildhood": 8650,
      "Ġcompound": 8651,
      "mmm": 8652,
      "Ġextended": 8653,
      "Ġ80": 8654,
      "Ġbelonged": 8655,
      "Ġlocation": 8656,
      "Ġcapture": 8657,
      "Ġunex": 8658,
      "Ġargument": 8659,
      "eautiful": 8660,
      "35": 8661,
      "AF": 8662,
      "Eng": 8663,
      "Mat": 8664,
      "Time": 8665,
      "sound": 8666,
      "Ġsout": 8667,
      "Ġdies": 8668,
      "Ġpitched": 8669,
      "asion": 8670,
      "Ġreform": 8671,
      "adley": 8672,
      "andra": 8673,
      "ĠSU": 8674,
      "illed": 8675,
      "Ġfeather": 8676,
      "udden": 8677,
      "Ġpole": 8678,
      "Ġunits": 8679,
      "Ġprince": 8680,
      "ewis": 8681,
      "ANK": 8682,
      "Ġcolored": 8683,
      "Ġreturning": 8684,
      "Ġhundreds": 8685,
      "ologist": 8686,
      "Ġapproaching": 8687,
      "Ġkissing": 8688,
      "Ġcloses": 8689,
      "Ġtempor": 8690,
      "Ġportion": 8691,
      "Ġdiscussion": 8692,
      "Ġassistant": 8693,
      "Ġcitizens": 8694,
      "uals": 8695,
      "whee": 8696,
      "Ġwing": 8697,
      "Ġdough": 8698,
      "omer": 8699,
      "imately": 8700,
      "ĠCa": 8701,
      "aba": 8702,
      "ĠRose": 8703,
      "Ġconqu": 8704,
      "Ġuseless": 8705,
      "Instead": 8706,
      "pton": 8707,
      "Ġcompared": 8708,
      "Ġcomplex": 8709,
      "Ġcommander": 8710,
      "OUR": 8711,
      "Ġ1968": 8712,
      "Ġpenny": 8713,
      "ĠIslands": 8714,
      "sniffs": 8715,
      "ĠCastle": 8716,
      "Ġsignificant": 8717,
      "Saint": 8718,
      "Welcome": 8719,
      "belt": 8720,
      "uable": 8721,
      "inity": 8722,
      "erman": 8723,
      "Ġbac": 8724,
      "Ġcateg": 8725,
      "orpor": 8726,
      "Ġlic": 8727,
      "ĠAF": 8728,
      "ĠBear": 8729,
      "unter": 8730,
      "Ġshining": 8731,
      "ĠGe": 8732,
      "ĠFamily": 8733,
      "asses": 8734,
      "Ġcomposed": 8735,
      "IND": 8736,
      "INE": 8737,
      "Ġmonkeys": 8738,
      "bridge": 8739,
      "Ġumbre": 8740,
      "ĠDev": 8741,
      "Ġreturns": 8742,
      "Ġplanet": 8743,
      "Ġservant": 8744,
      "ITT": 8745,
      "fortable": 8746,
      "Ġcreatures": 8747,
      "ĠBarb": 8748,
      "Ġpotato": 8749,
      "Ġdawn": 8750,
      "Ġ1930": 8751,
      "Ġvisitors": 8752,
      "ĠDanny": 8753,
      "Ġprisoners": 8754,
      "Ġmerged": 8755,
      "keeper": 8756,
      "Ġprimary": 8757,
      "Ġbubbles": 8758,
      "Ġadopted": 8759,
      "45": 8760,
      "ROU": 8761,
      "san": 8762,
      "wers": 8763,
      "Ġawards": 8764,
      "Ġarose": 8765,
      "Ġsought": 8766,
      "Ġfestival": 8767,
      "omin": 8768,
      "utt": 8769,
      "adies": 8770,
      "riger": 8771,
      "Ġstations": 8772,
      "Ġknot": 8773,
      "ĠSally": 8774,
      "Ġgoals": 8775,
      "ĠBell": 8776,
      "unte": 8777,
      "ĠGabriella": 8778,
      "ĠFin": 8779,
      "ĠWales": 8780,
      "earch": 8781,
      "ĠOb": 8782,
      "Ġpean": 8783,
      "peekaboo": 8784,
      "Ġdisg": 8785,
      "Ġhelpless": 8786,
      "Ġresident": 8787,
      "Ġstopping": 8788,
      "Ġdrank": 8789,
      "Ġrivers": 8790,
      "Ġ1975": 8791,
      "Ġtouching": 8792,
      "Ġshops": 8793,
      "Ġclimbed": 8794,
      "Ġtreatment": 8795,
      "volution": 8796,
      "Ġsatisfaction": 8797,
      "ĠChampionships": 8798,
      "Ġdegrees": 8799,
      "ĠStanley": 8800,
      "ĠLieutenant": 8801,
      "ennessee": 8802,
      "Absolutely": 8803,
      "EAR": 8804,
      "TON": 8805,
      "gabr": 8806,
      "nam": 8807,
      "wind": 8808,
      "Ġbishop": 8809,
      "Ġcups": 8810,
      "Ġopt": 8811,
      "Ġded": 8812,
      "imum": 8813,
      "ami": 8814,
      "Ġstout": 8815,
      "Ġstamp": 8816,
      "Ġancest": 8817,
      "ĠDie": 8818,
      "ighed": 8819,
      "ĠLwww": 8820,
      "Ġclip": 8821,
      "Ġchuck": 8822,
      "Ġhorror": 8823,
      "Ġconfused": 8824,
      "Ġpainted": 8825,
      "Ġpolicies": 8826,
      "Ġislands": 8827,
      "Ġgrowth": 8828,
      "UNT": 8829,
      "ĠLiber": 8830,
      "Ġtidy": 8831,
      "Ġarchite": 8832,
      "Ġphrase": 8833,
      "referring": 8834,
      "count": 8835,
      "Ġcord": 8836,
      "Ġmental": 8837,
      "Ġreview": 8838,
      "Ġreference": 8839,
      "ĠAC": 8840,
      "ilst": 8841,
      "ophy": 8842,
      "uled": 8843,
      "Ġgettin": 8844,
      "theless": 8845,
      "Ġchamber": 8846,
      "Ġattitude": 8847,
      "donald": 8848,
      "Ġcharged": 8849,
      "Ġconstant": 8850,
      "Ġillust": 8851,
      "Ġexperiment": 8852,
      "ĠSusan": 8853,
      "Bre": 8854,
      "jamin": 8855,
      "mind": 8856,
      "thanks": 8857,
      "uct": 8858,
      "onation": 8859,
      "Ġgal": 8860,
      "Ġrefe": 8861,
      "Ġstiff": 8862,
      "eling": 8863,
      "ĠRich": 8864,
      "apers": 8865,
      "Ġvig": 8866,
      "issed": 8867,
      "ysis": 8868,
      "ogne": 8869,
      "Ġheaded": 8870,
      "ebra": 8871,
      "ĠAlan": 8872,
      "Ġinstit": 8873,
      "ĠGran": 8874,
      "Ġcrap": 8875,
      "Ġadmitted": 8876,
      "Ġaudience": 8877,
      "Ġproceeded": 8878,
      "Ġaffected": 8879,
      "ĠFilm": 8880,
      "Ġsenior": 8881,
      ",...": 8882,
      "Cr": 8883,
      "PS": 8884,
      "Six": 8885,
      "jump": 8886,
      "Ġaft": 8887,
      "Ġmac": 8888,
      "Ġdining": 8889,
      "Ġfake": 8890,
      "Ġpist": 8891,
      "Ġnick": 8892,
      "Ġnonsense": 8893,
      "ĠNHL": 8894,
      "Ġgoodbye": 8895,
      "never": 8896,
      "Ġguards": 8897,
      "Ġcrick": 8898,
      "Ġsla": 8899,
      "inners": 8900,
      "Ġpolite": 8901,
      "Ġanimated": 8902,
      "Ġdrift": 8903,
      "Ġfacts": 8904,
      "Ġfriendship": 8905,
      "Ġconfident": 8906,
      "Ġthankful": 8907,
      "Ġ1974": 8908,
      "Ġ1977": 8909,
      "ĠIsa": 8910,
      "Ġinspect": 8911,
      "Ġcommonly": 8912,
      "Ġbasic": 8913,
      "ĠPoland": 8914,
      "Ġphotograph": 8915,
      "Ġmuttered": 8916,
      "Ġvotes": 8917,
      "ĠFrancisco": 8918,
      "Ġscript": 8919,
      "Ġconcluded": 8920,
      "BY": 8921,
      "Bring": 8922,
      "Jul": 8923,
      "Ġhee": 8924,
      "alo": 8925,
      "Ġnit": 8926,
      "Ġstares": 8927,
      "star": 8928,
      "ĠCreeks": 8929,
      "ĠShan": 8930,
      "ĠTok": 8931,
      "ĠTennessee": 8932,
      "ĠJon": 8933,
      "ĠLang": 8934,
      "Ġintention": 8935,
      "next": 8936,
      "ĠKnight": 8937,
      "before": 8938,
      "Ġactions": 8939,
      "Ġobtained": 8940,
      "Stand": 8941,
      "ĠNews": 8942,
      "Ġwinds": 8943,
      "Ġkidna": 8944,
      "Ġimpress": 8945,
      "Ġdiscover": 8946,
      "Ġsticking": 8947,
      "Ġshortly": 8948,
      "Ġleads": 8949,
      "Ġgrape": 8950,
      "Ġdefence": 8951,
      "oubled": 8952,
      "Ġpacked": 8953,
      "Ġdescribe": 8954,
      "Ġpossibility": 8955,
      "Check": 8956,
      "Ġutterance": 8957,
      "ĠKorean": 8958,
      "ĠAtlantic": 8959,
      "Ġbastard": 8960,
      "Ġhelicopter": 8961,
      "ngeun": 8962,
      "Hang": 8963,
      "Jean": 8964,
      "bud": 8965,
      "dear": 8966,
      "great": 8967,
      "inem": 8968,
      "Ġgon": 8969,
      "Ġlover": 8970,
      "Ġna": 8971,
      "eav": 8972,
      "ĠCarr": 8973,
      "ookie": 8974,
      "hens": 8975,
      "ĠNa": 8976,
      "Ġquack": 8977,
      "ava": 8978,
      "Ġshapes": 8979,
      "HEN": 8980,
      "arson": 8981,
      "Ġ36": 8982,
      "Ġelement": 8983,
      "Ġassured": 8984,
      "Ġfactory": 8985,
      "Ã©e": 8986,
      "Ġsteam": 8987,
      "Ġ1973": 8988,
      "Ġmistaken": 8989,
      "ĠJoey": 8990,
      "ĠTele": 8991,
      "Ġholidays": 8992,
      "Ġhealthy": 8993,
      "Ġhistorical": 8994,
      "Ġdemanded": 8995,
      "Ġmerely": 8996,
      "Ġliquid": 8997,
      "ĠLincoln": 8998,
      "Ġcigaret": 8999,
      "Ġunexpected": 9000,
      "eys": 9001,
      "may": 9002,
      "onom": 9003,
      "Ġmast": 9004,
      "Ġdug": 9005,
      "aman": 9006,
      "Ġven": 9007,
      "Ġexact": 9008,
      "Ġnowhere": 9009,
      "Ġ(,": 9010,
      "Ġkindness": 9011,
      "bring": 9012,
      "Ġnearby": 9013,
      "ĠAustria": 9014,
      "urious": 9015,
      "Ġorganized": 9016,
      "Ġseparated": 9017,
      "Ġphoto": 9018,
      "Ġfurniture": 9019,
      "Ġconfirmed": 9020,
      "End": 9021,
      "MY": 9022,
      "Want": 9023,
      "Ġaer": 9024,
      "Ġmister": 9025,
      "asped": 9026,
      "Ġere": 9027,
      "kee": 9028,
      "ĠAL": 9029,
      "ĠFle": 9030,
      "udding": 9031,
      "places": 9032,
      "Ġpoem": 9033,
      "Ġsurgery": 9034,
      "Ġtriangle": 9035,
      "Ġaddressed": 9036,
      "Ġconfusion": 9037,
      "Ġreaching": 9038,
      "Ġclasses": 9039,
      "Shit": 9040,
      "Ġpotty": 9041,
      "Ġkicked": 9042,
      "Ġcheerful": 9043,
      "Ġresolution": 9044,
      "ĠJewish": 9045,
      "Ġintroduce": 9046,
      "Ġathlet": 9047,
      "Ġuncomfortable": 9048,
      "BS": 9049,
      "Boy": 9050,
      "Manchester": 9051,
      "Run": 9052,
      "mate": 9053,
      "Ġtropical": 9054,
      "ourage": 9055,
      "Ġdumb": 9056,
      "hati": 9057,
      "Ġreign": 9058,
      "Ġstable": 9059,
      "Ġstated": 9060,
      "ĠAle": 9061,
      "ĠBall": 9062,
      "umption": 9063,
      "ĠRoss": 9064,
      "ntil": 9065,
      "ĠEv": 9066,
      "ipina": 9067,
      "Ġlasted": 9068,
      "Ġ35": 9069,
      "ikander": 9070,
      "Ġmidnight": 9071,
      "Ġcereal": 9072,
      "Ġabsence": 9073,
      "Ġpackage": 9074,
      "Ġeconomy": 9075,
      "hemat": 9076,
      "Ġrailway": 9077,
      "ĠCOVID": 9078,
      "Ġinstrument": 9079,
      "Ġwarriors": 9080,
      "gbark": 9081,
      "Ġumbrella": 9082,
      "99": 9083,
      "Hon": 9084,
      "picture": 9085,
      "wah": 9086,
      "nderson": 9087,
      "Ġmerry": 9088,
      "ettle": 9089,
      "vering": 9090,
      "entine": 9091,
      "ĠMoon": 9092,
      "Ġje": 9093,
      "Ġrider": 9094,
      "ĠLola": 9095,
      "Ġbrick": 9096,
      "Ġpreviously": 9097,
      "Ġwrit": 9098,
      "enses": 9099,
      "aughters": 9100,
      "grand": 9101,
      "ATE": 9102,
      "Ġalongside": 9103,
      "Ġlaunched": 9104,
      "ICE": 9105,
      "remony": 9106,
      "ĠPolish": 9107,
      "Ġmagnetic": 9108,
      "everybody": 9109,
      "ĠBertha": 9110,
      "Bo": 9111,
      "Ten": 9112,
      "haw": 9113,
      "erick": 9114,
      "Ġdirt": 9115,
      "escue": 9116,
      "arant": 9117,
      "acco": 9118,
      "ĠCle": 9119,
      "Ġgods": 9120,
      "ĠPoint": 9121,
      "ĠTem": 9122,
      "ĠTuesday": 9123,
      "ĠJac": 9124,
      "ĠWinter": 9125,
      "Ġerr": 9126,
      "Ġteen": 9127,
      "Ġstrict": 9128,
      "Ġreduced": 9129,
      "Ġhumans": 9130,
      "Ġ1957": 9131,
      "Ġhurting": 9132,
      "Ġstatus": 9133,
      "ĠAuntie": 9134,
      "Ġsexual": 9135,
      "Ġextraord": 9136,
      "Ġbasketball": 9137,
      "Ġgradually": 9138,
      "ĠMerrim": 9139,
      "ĠVictoria": 9140,
      "ĠUkraine": 9141,
      "Ġcommercial": 9142,
      "ĠService": 9143,
      "48": 9144,
      "Sudden": 9145,
      "Ġwolf": 9146,
      "Ġsank": 9147,
      "Ġstared": 9148,
      "Ġgosh": 9149,
      "Ġwhilst": 9150,
      "inking": 9151,
      "ĠHond": 9152,
      "ender": 9153,
      "hart": 9154,
      "ĠStand": 9155,
      "Ġunivers": 9156,
      "obrin": 9157,
      "Ġrage": 9158,
      "Ġdistingu": 9159,
      "Ġmidst": 9160,
      "Ġceremony": 9161,
      "Ġconcer": 9162,
      "Ġburden": 9163,
      "whisper": 9164,
      "Ġexception": 9165,
      "William": 9166,
      "Ġpunishment": 9167,
      "Ġinvestigation": 9168,
      "phabet": 9169,
      "ifferent": 9170,
      "ĠEliot": 9171,
      "obrinini": 9172,
      "?]": 9173,
      "CL": 9174,
      "Sim": 9175,
      "Ġ:": 9176,
      "itors": 9177,
      "anim": 9178,
      "Ġpace": 9179,
      "Ġlos": 9180,
      "Ġbeard": 9181,
      "Ġwebs": 9182,
      "ifts": 9183,
      "ĠPot": 9184,
      "ĠLisa": 9185,
      "ĠEst": 9186,
      "ĠEastern": 9187,
      "them": 9188,
      "Ġroast": 9189,
      "Ġblast": 9190,
      "Ġenqu": 9191,
      "Ġprey": 9192,
      "gger": 9193,
      "ultural": 9194,
      "Ġtrained": 9195,
      "Ġaccompan": 9196,
      "whose": 9197,
      "Ġcapable": 9198,
      "Ġdecent": 9199,
      "arrondissement": 9200,
      "ĠMayor": 9201,
      "Ġevol": 9202,
      "Ġannounce": 9203,
      "ĠTrans": 9204,
      "dded": 9205,
      "Ġclosing": 9206,
      "Ġsafely": 9207,
      "Ġkicking": 9208,
      "Ġneighbour": 9209,
      "Ġnaturally": 9210,
      "Ġfoolish": 9211,
      "Ġeconomic": 9212,
      "Ġencoura": 9213,
      "Ġresponded": 9214,
      "Ġbattery": 9215,
      "Ġlemon": 9216,
      "Ġwrapped": 9217,
      "IX": 9218,
      "PP": 9219,
      "Ã¦": 9220,
      "Ġwret": 9221,
      "Ġcuddle": 9222,
      "Ġmal": 9223,
      "orial": 9224,
      "Ġgest": 9225,
      "Ġgiraffe": 9226,
      "Ġhal": 9227,
      "kel": 9228,
      "urbed": 9229,
      "unks": 9230,
      "geon": 9231,
      "ĠDi": 9232,
      "Ġplates": 9233,
      "Ġbyeb": 9234,
      "Ġvoy": 9235,
      "Ġvirt": 9236,
      "aga": 9237,
      "Ġfee": 9238,
      "aterpill": 9239,
      "cipl": 9240,
      "oca": 9241,
      "Ġendeav": 9242,
      "rows": 9243,
      "Ġobst": 9244,
      "Ġlisted": 9245,
      "Ġsumm": 9246,
      "Ġopera": 9247,
      "Ġlabel": 9248,
      "Ġvolunte": 9249,
      "Ġfeeding": 9250,
      "Newman": 9251,
      "Ġmercy": 9252,
      "Ġscreaming": 9253,
      "ĠDouglas": 9254,
      "Ġsurrounded": 9255,
      "Ġdepends": 9256,
      "hammad": 9257,
      "100": 9258,
      "47": 9259,
      "AV": 9260,
      "Ab": 9261,
      "Happy": 9262,
      "bear": 9263,
      "made": 9264,
      "Ġhired": 9265,
      "Ġthief": 9266,
      "amation": 9267,
      "ĠCivil": 9268,
      "Ġgoat": 9269,
      "âĢķ": 9270,
      "ĠAileen": 9271,
      "cker": 9272,
      "endous": 9273,
      "itei": 9274,
      "ĠKang": 9275,
      "aved": 9276,
      "Ġasks": 9277,
      "apple": 9278,
      "Atl": 9279,
      "Ġexpressed": 9280,
      "CHAR": 9281,
      "Ġ1966": 9282,
      "Ġclothing": 9283,
      "Ġopposed": 9284,
      "Ġorganis": 9285,
      "Ġtesting": 9286,
      "Ġlabor": 9287,
      "Ġprepare": 9288,
      "Ġseventeen": 9289,
      "Ġepisodes": 9290,
      "Ġexistence": 9291,
      "Supp": 9292,
      "Ġcycl": 9293,
      "Ġtraditional": 9294,
      "ĠStephen": 9295,
      "quarters": 9296,
      "Interviews": 9297,
      "Ratner": 9298,
      "Ġpeculiar": 9299,
      "NewmanRatner": 9300,
      ";\"": 9301,
      "Follow": 9302,
      "XX": 9303,
      "aise": 9304,
      "gain": 9305,
      "ii": 9306,
      "uing": 9307,
      "Ġtables": 9308,
      "Ġax": 9309,
      "Ġbars": 9310,
      "otted": 9311,
      "urd": 9312,
      "ĠAvenue": 9313,
      "elling": 9314,
      "ĠBank": 9315,
      "ĠPapa": 9316,
      "ĠJUST": 9317,
      "ĠNancy": 9318,
      "agger": 9319,
      "Ġquant": 9320,
      "Ġsmoking": 9321,
      "ogue": 9322,
      "Ġcounting": 9323,
      "umpty": 9324,
      "ORT": 9325,
      "encies": 9326,
      "Ġ1971": 9327,
      "Ġeditor": 9328,
      "ROM": 9329,
      "Ġarticle": 9330,
      "Ġtickets": 9331,
      "Ġdevice": 9332,
      "Ġhydro": 9333,
      "probably": 9334,
      "Ġbillion": 9335,
      "Ġnapkin": 9336,
      "ĠGraeme": 9337,
      "ĠUrsula": 9338,
      "BR": 9339,
      "Honey": 9340,
      "LING": 9341,
      "mosp": 9342,
      "pool": 9343,
      "vior": 9344,
      "Ġped": 9345,
      "Ġbeating": 9346,
      "iments": 9347,
      "Ġmend": 9348,
      "ĠPope": 9349,
      "ĠTall": 9350,
      "ĠDuke": 9351,
      "Young": 9352,
      "eline": 9353,
      "hings": 9354,
      "Ġclay": 9355,
      "Ġthrust": 9356,
      "Ġunlike": 9357,
      "ĠValley": 9358,
      "Ġnumerous": 9359,
      "Ġdiscovery": 9360,
      "Ġreflect": 9361,
      "Ġsunshine": 9362,
      "Ġ1940": 9363,
      "Ġproducts": 9364,
      "Ġquarters": 9365,
      "mitage": 9366,
      "ocracy": 9367,
      "Ġdivorced": 9368,
      "Ġslavery": 9369,
      "CO": 9370,
      "Certainly": 9371,
      "Down": 9372,
      "Ro": 9373,
      "TV": 9374,
      "bin": 9375,
      "grow": 9376,
      "yup": 9377,
      "itter": 9378,
      "etime": 9379,
      "stay": 9380,
      "ĠChat": 9381,
      "ainted": 9382,
      "ĠDog": 9383,
      "ĠJoy": 9384,
      "ĠLE": 9385,
      "ĠRh": 9386,
      "Ġspaghetti": 9387,
      "Ġages": 9388,
      "Ġtrace": 9389,
      "Ġchin": 9390,
      "Ġdragged": 9391,
      "grunts": 9392,
      "Ġobtain": 9393,
      "Ġwarn": 9394,
      "Ġimpact": 9395,
      "Ġcatches": 9396,
      "force": 9397,
      "Ġinsisted": 9398,
      "Ġloads": 9399,
      "Ġvariety": 9400,
      "Ġcowboy": 9401,
      "ĠTech": 9402,
      "Ġattempts": 9403,
      "ĠForce": 9404,
      "Ġactivist": 9405,
      "Ġanxiety": 9406,
      "Ġmemories": 9407,
      "AUGH": 9408,
      "ĠMiddle": 9409,
      "twenty": 9410,
      "ĠChildsname": 9411,
      "Ġvegetables": 9412,
      "GR": 9413,
      "gimme": 9414,
      "phia": 9415,
      "taking": 9416,
      "vant": 9417,
      "inet": 9418,
      "inced": 9419,
      "Ġbond": 9420,
      "Ġcreek": 9421,
      "Ġbegged": 9422,
      "Ġecho": 9423,
[...]
